{
  "version": "1.0",
  "truncation": null,
  "padding": null,
  "added_tokens": [
    {
      "id": 0,
      "content": "[PAD]",
      "single_word": false,
      "lstrip": false,
      "rstrip": false,
      "normalized": false,
      "special": true
    },
    {
      "id": 1,
      "content": "[UNK]",
      "single_word": false,
      "lstrip": false,
      "rstrip": false,
      "normalized": false,
      "special": true
    },
    {
      "id": 2,
      "content": "[CLS]",
      "single_word": false,
      "lstrip": false,
      "rstrip": false,
      "normalized": false,
      "special": true
    },
    {
      "id": 3,
      "content": "[SEP]",
      "single_word": false,
      "lstrip": false,
      "rstrip": false,
      "normalized": false,
      "special": true
    },
    {
      "id": 4,
      "content": "[MASK]",
      "single_word": false,
      "lstrip": false,
      "rstrip": false,
      "normalized": false,
      "special": true
    }
  ],
  "normalizer": {
    "type": "BertNormalizer",
    "clean_text": true,
    "handle_chinese_chars": true,
    "strip_accents": null,
    "lowercase": true
  },
  "pre_tokenizer": {
    "type": "BertPreTokenizer"
  },
  "post_processor": {
    "type": "BertProcessing",
    "sep": [
      "[SEP]",
      3
    ],
    "cls": [
      "[CLS]",
      2
    ]
  },
  "decoder": {
    "type": "WordPiece",
    "prefix": "##",
    "cleanup": true
  },
  "model": {
    "type": "WordPiece",
    "unk_token": "[UNK]",
    "continuing_subword_prefix": "##",
    "max_input_chars_per_word": 100,
    "vocab": {
      "[PAD]": 0,
      "[UNK]": 1,
      "[CLS]": 2,
      "[SEP]": 3,
      "[MASK]": 4,
      ".": 5,
      "##을": 6,
      "##의": 7,
      ",": 8,
      "\"": 9,
      "##에": 10,
      "'": 11,
      "##이": 12,
      "##는": 13,
      "##를": 14,
      ")": 15,
      "(": 16,
      "##은": 17,
      "##가": 18,
      "##로": 19,
      "##도": 20,
      "##한": 21,
      "##일": 22,
      "##에서": 23,
      "##과": 24,
      "##년": 25,
      "이": 26,
      "##ᆫ": 27,
      "##으로": 28,
      "##고": 29,
      "있다": 30,
      "##인": 31,
      "##와": 32,
      "수": 33,
      "##지": 34,
      "1": 35,
      "고": 36,
      "##했다": 37,
      "2": 38,
      "##해": 39,
      "##월": 40,
      "##다": 41,
      "3": 42,
      "##하는": 43,
      "##이다": 44,
      "##기": 45,
      "##하고": 46,
      "##ᆯ": 47,
      "##만": 48,
      "##할": 49,
      "##시": 50,
      "전": 51,
      "·": 52,
      "한": 53,
      "##사": 54,
      "##자": 55,
      "##대": 56,
      "등": 57,
      "4": 58,
      "5": 59,
      "##서": 60,
      "##수": 61,
      "##리": 62,
      "-": 63,
      "그": 64,
      "있는": 65,
      "%": 66,
      "가": 67,
      "##주": 68,
      "##어": 69,
      "##나": 70,
      "중": 71,
      "##스": 72,
      "했다": 73,
      "##게": 74,
      "6": 75,
      "##된": 76,
      "##부": 77,
      "##성": 78,
      "10": 79,
      "##원": 80,
      "김": 81,
      "##세": 82,
      "##진": 83,
      "##면": 84,
      "##상": 85,
      "것": 86,
      "##전": 87,
      "##동": 88,
      "##적": 89,
      "7": 90,
      "##화": 91,
      "##정": 92,
      "##에게": 93,
      "##ᆷ": 94,
      "정": 95,
      "제": 96,
      "##아": 97,
      "8": 98,
      "는": 99,
      "##차": 100,
      "##소": 101,
      "##한다": 102,
      "##조": 103,
      "것으로": 104,
      "유": 105,
      "##구": 106,
      "##까지": 107,
      "##ᆺ": 108,
      "##장": 109,
      "며": 110,
      "##비": 111,
      "대한": 112,
      "대": 113,
      "9": 114,
      "##라": 115,
      "시": 116,
      "##위": 117,
      "##명": 118,
      "##ᆻ다": 119,
      "##개": 120,
      "##우": 121,
      "##미": 122,
      "##치": 123,
      "말했다": 124,
      "##야": 125,
      "신": 126,
      "더": 127,
      "사": 128,
      "##회": 129,
      "##제": 130,
      "오": 131,
      "##선": 132,
      "후": 133,
      "안": 134,
      "미": 135,
      "서울": 136,
      "##드": 137,
      "두": 138,
      "주": 139,
      "##며": 140,
      "때": 141,
      "##ᆨ": 142,
      "의": 143,
      "##보": 144,
      "내": 145,
      "##호": 146,
      "한국": 147,
      "위해": 148,
      "##에는": 149,
      "조": 150,
      "박": 151,
      "이날": 152,
      "##산": 153,
      "이후": 154,
      "한다": 155,
      "##르": 156,
      "~": 157,
      "##들이": 158,
      "##형": 159,
      "##ᆼ": 160,
      "밝혔다": 161,
      "##하게": 162,
      "##트": 163,
      "에": 164,
      "##당": 165,
      "##여": 166,
      "원": 167,
      "통해": 168,
      "미국": 169,
      "##니": 170,
      "##분": 171,
      "지난": 172,
      "##재": 173,
      "함께": 174,
      "은": 175,
      "다": 176,
      "##마": 177,
      "##적인": 178,
      "##용": 179,
      "지": 180,
      "12": 181,
      "로": 182,
      "##하지": 183,
      "##하여": 184,
      "기": 185,
      "##하였다": 186,
      "##관": 187,
      "##신": 188,
      "##히": 189,
      "##하기": 190,
      "11": 191,
      "##하며": 192,
      "구": 193,
      "그는": 194,
      "아": 195,
      "장": 196,
      "비": 197,
      "해": 198,
      "서": 199,
      "일": 200,
      "##권": 201,
      "##하": 202,
      "##오": 203,
      "19": 204,
      "20": 205,
      "##요": 206,
      "##영": 207,
      "##타": 208,
      "##식": 209,
      "##경": 210,
      "소": 211,
      "##국": 212,
      "강": 213,
      "이라고": 214,
      "같은": 215,
      "##적으로": 216,
      "##모": 217,
      "세": 218,
      "대해": 219,
      "##무": 220,
      "상": 221,
      "부": 222,
      "일본": 223,
      "##승": 224,
      "##2": 225,
      "중국": 226,
      "나": 227,
      "뒤": 228,
      "를": 229,
      "##부터": 230,
      "보": 231,
      "이어": 232,
      "영화": 233,
      "##루": 234,
      "##중": 235,
      "모": 236,
      "##파": 237,
      "##석": 238,
      "##계": 239,
      "##문": 240,
      "도": 241,
      "##연": 242,
      "성": 243,
      "오후": 244,
      "및": 245,
      "##ᆸ": 246,
      "##유": 247,
      "또": 248,
      "##보다": 249,
      "##금": 250,
      "##현": 251,
      "##군": 252,
      "다른": 253,
      "말": 254,
      "라고": 255,
      "##되었다": 256,
      "##방": 257,
      "18": 258,
      "##종": 259,
      "##됐다": 260,
      "A": 261,
      "##안": 262,
      "것이다": 263,
      "##체": 264,
      "약": 265,
      "무": 266,
      "공": 267,
      "문": 268,
      "##노": 269,
      "가장": 270,
      "재": 271,
      "첫": 272,
      "##즈": 273,
      "##카": 274,
      "##점": 275,
      "이상": 276,
      "하지만": 277,
      "0": 278,
      "##들은": 279,
      "정부": 280,
      "30": 281,
      "##에서는": 282,
      "마": 283,
      "15": 284,
      "##실": 285,
      "##크": 286,
      "##ᆻ고": 287,
      "##단": 288,
      "양": 289,
      "이번": 290,
      "최": 291,
      "하": 292,
      "##법": 293,
      "총": 294,
      "##민": 295,
      "##ᆫ다": 296,
      "지난해": 297,
      "##억": 298,
      "동": 299,
      "경기": 300,
      "것이": 301,
      "##공": 302,
      "##물": 303,
      "##이었다": 304,
      "##면서": 305,
      "연": 306,
      "##m": 307,
      "##1": 308,
      "##내": 309,
      "파": 310,
      "모두": 311,
      "선": 312,
      "자": 313,
      "##들": 314,
      "불": 315,
      "할": 316,
      "##포": 317,
      "당시": 318,
      "##역": 319,
      "##된다": 320,
      "남": 321,
      "##양": 322,
      "때문에": 323,
      "바": 324,
      "##프": 325,
      "##건": 326,
      "우": 327,
      "열린": 328,
      "##태": 329,
      "피": 330,
      "반": 331,
      "차": 332,
      "##학": 333,
      "것은": 334,
      "과": 335,
      "최근": 336,
      "시즌": 337,
      "##ᆻ던": 338,
      "16": 339,
      "따라": 340,
      "잘": 341,
      "##교": 342,
      "분": 343,
      "##하면서": 344,
      "현재": 345,
      "##행": 346,
      "하는": 347,
      "데": 348,
      "##강": 349,
      "큰": 350,
      "##려": 351,
      "##급": 352,
      "##토": 353,
      "위": 354,
      "##천": 355,
      "##데": 356,
      "##였다": 357,
      "세계": 358,
      "경우": 359,
      "##이나": 360,
      "##터": 361,
      "등을": 362,
      "없다": 363,
      "##되는": 364,
      "##ᆯ리": 365,
      "그러나": 366,
      "올해": 367,
      "위한": 368,
      "##들의": 369,
      "배": 370,
      "많은": 371,
      "다시": 372,
      "거": 373,
      "##디": 374,
      "##준": 375,
      "##바": 376,
      "##코": 377,
      "있었다": 378,
      "초": 379,
      "다음": 380,
      "##에도": 381,
      "##생": 382,
      "##류": 383,
      "북한": 384,
      "당": 385,
      "따르면": 386,
      "와": 387,
      "##청": 388,
      "##돼": 389,
      "17": 390,
      "14": 391,
      "13": 392,
      "##배": 393,
      "것을": 394,
      "저": 395,
      "##했고": 396,
      "리": 397,
      "##되어": 398,
      "노": 399,
      "된다": 400,
      "인": 401,
      "##들을": 402,
      "발": 403,
      "##직": 404,
      "포": 405,
      "##두": 406,
      "##피": 407,
      "어": 408,
      "우리": 409,
      "##티": 410,
      "경": 411,
      "간": 412,
      "##운": 413,
      "##《": 414,
      "》": 415,
      "##병": 416,
      "경제": 417,
      "##감": 418,
      "##e": 419,
      "여": 420,
      "##ᆻ지만": 421,
      "의원": 422,
      "##러": 423,
      "명": 424,
      "25": 425,
      "##키": 426,
      "팀": 427,
      "배우": 428,
      "##해야": 429,
      "S": 430,
      "국내": 431,
      "##하면": 432,
      "B": 433,
      "##질": 434,
      "산": 435,
      "감독": 436,
      "##심": 437,
      "##브": 438,
      "진": 439,
      "게": 440,
      "##발": 441,
      "결과": 442,
      "##희": 443,
      ":": 444,
      "##작": 445,
      "특히": 446,
      "스": 447,
      "##패": 448,
      "##창": 449,
      "##될": 450,
      "##하다": 451,
      "단": 452,
      "##통": 453,
      "에서": 454,
      "##만원": 455,
      "개": 456,
      "또한": 457,
      "##환": 458,
      "지원": 459,
      "기록": 460,
      "##3": 461,
      "##거": 462,
      "지역": 463,
      "관련": 464,
      "##레": 465,
      "않았다": 466,
      "문제": 467,
      "##억원": 468,
      "?": 469,
      "대표": 470,
      "##번": 471,
      "M": 472,
      "##남": 473,
      "##판": 474,
      "새": 475,
      "삼성": 476,
      "카": 477,
      "매": 478,
      "하고": 479,
      "역": 480,
      "C": 481,
      "대한민국": 482,
      "됐다": 483,
      "##s": 484,
      "##던": 485,
      "##속": 486,
      "없는": 487,
      "##훈": 488,
      "##네": 489,
      "실": 490,
      "호": 491,
      "국가": 492,
      "영": 493,
      "모든": 494,
      "##층": 495,
      "##력": 496,
      "사용": 497,
      "##투": 498,
      "윤": 499,
      "##었다": 500,
      "군": 501,
      "자신의": 502,
      "##반": 503,
      "손": 504,
      "##근": 505,
      "하나": 506,
      "달": 507,
      "속": 508,
      "##했던": 509,
      "##a": 510,
      "##년에": 511,
      "K": 512,
      "아니라": 513,
      "심": 514,
      "##란": 515,
      "결정": 516,
      "2016": 517,
      "##집": 518,
      "##업": 519,
      "이에": 520,
      "##복": 521,
      "SK": 522,
      "임": 523,
      "방송": 524,
      "모습": 525,
      "##래": 526,
      "번": 527,
      "타": 528,
      "동안": 529,
      "##되고": 530,
      "만": 531,
      "시간": 532,
      "사람": 533,
      "그리고": 534,
      "입": 535,
      "외": 536,
      "##ᆯ러": 537,
      "사업": 538,
      "##격": 539,
      "##설": 540,
      "##철": 541,
      "LG": 542,
      "사건": 543,
      "##규": 544,
      "백": 545,
      "##더": 546,
      "##그": 547,
      "대통령": 548,
      "많이": 549,
      "##출": 550,
      "가운데": 551,
      "방": 552,
      "송": 553,
      "##이며": 554,
      "조사": 555,
      "21": 556,
      "##저": 557,
      "/": 558,
      "2015": 559,
      "##열": 560,
      "일부": 561,
      "관계자는": 562,
      "승리": 563,
      "##리그": 564,
      "화": 565,
      "같다": 566,
      "기업": 567,
      "##음": 568,
      "##후": 569,
      "24": 570,
      "23": 571,
      "기술": 572,
      "생각": 573,
      "애": 574,
      "개발": 575,
      "##년생": 576,
      "있어": 577,
      "##색": 578,
      "건": 579,
      "##ᆯ라": 580,
      "##씨는": 581,
      "##량": 582,
      "##처럼": 583,
      "시작": 584,
      "22": 585,
      "한편": 586,
      "사실": 587,
      "투자": 588,
      "물": 589,
      "코": 590,
      "회사": 591,
      "##스트": 592,
      "##령": 593,
      "볼": 594,
      "예": 595,
      "100": 596,
      "관": 597,
      "##초": 598,
      "27": 599,
      "점": 600,
      "선수": 601,
      "못": 602,
      "라는": 603,
      "등이": 604,
      "##위원회": 605,
      "현": 606,
      "본": 607,
      "될": 608,
      "회장": 609,
      "##버": 610,
      "여성": 611,
      "왕": 612,
      "줄": 613,
      "알": 614,
      "##예": 615,
      "추가": 616,
      "날": 617,
      "홍": 618,
      "##주의": 619,
      "트럼프": 620,
      "그의": 621,
      "아이": 622,
      "##온": 623,
      "##등": 624,
      "28": 625,
      "계속": 626,
      "P": 627,
      "##t": 628,
      "##왕": 629,
      "##라는": 630,
      "##o": 631,
      "26": 632,
      "적": 633,
      "전했다": 634,
      "시장": 635,
      "2018": 636,
      "보고": 637,
      "G": 638,
      "연구": 639,
      "판매": 640,
      "좋은": 641,
      "##임": 642,
      "정도": 643,
      "국": 644,
      "교": 645,
      "등의": 646,
      "채": 647,
      "2017": 648,
      "이를": 649,
      "새로운": 650,
      "##져": 651,
      "##워": 652,
      "##라고": 653,
      "직접": 654,
      "D": 655,
      "##절": 656,
      "앞서": 657,
      "##y": 658,
      "씨": 659,
      "각": 660,
      "##목": 661,
      "국제": 662,
      "##편": 663,
      "황": 664,
      "올": 665,
      "않고": 666,
      "이라며": 667,
      "종": 668,
      "국민": 669,
      "되었다": 670,
      "다양한": 671,
      "사진": 672,
      "이런": 673,
      "서비스": 674,
      "최대": 675,
      "진행": 676,
      "##박": 677,
      "##위를": 678,
      "북": 679,
      "29": 680,
      "롯데": 681,
      "##점을": 682,
      "추": 683,
      "활동": 684,
      "받았다": 685,
      "여러": 686,
      "허": 687,
      "##증": 688,
      "50": 689,
      "오전": 690,
      "감": 691,
      "##매": 692,
      "만나": 693,
      "##합": 694,
      "경찰": 695,
      "작품": 696,
      "최고": 697,
      "된": 698,
      "##각": 699,
      "##메": 700,
      "뜻": 701,
      "##했지만": 702,
      "##기를": 703,
      "##결": 704,
      "영국": 705,
      "않은": 706,
      "##시간": 707,
      "선발": 708,
      "##ᆻ는데": 709,
      "부산": 710,
      "##이라는": 711,
      "민": 712,
      "##림": 713,
      "##지는": 714,
      "##추": 715,
      "##ᆻ을": 716,
      "##테": 717,
      "##쿠": 718,
      "##i": 719,
      "##길": 720,
      "준비": 721,
      "치": 722,
      "받아": 723,
      "##명이": 724,
      "토": 725,
      "마음": 726,
      "##범": 727,
      "친": 728,
      "##이라고": 729,
      "##들에게": 730,
      "##료": 731,
      "##km": 732,
      "운영": 733,
      "예정이다": 734,
      "교수": 735,
      "##론": 736,
      "F": 737,
      "수사": 738,
      "정책": 739,
      "프랑스": 740,
      "L": 741,
      "제품": 742,
      "계획": 743,
      "삼": 744,
      "##팀": 745,
      "받고": 746,
      "##츠": 747,
      "주장": 748,
      "2014": 749,
      "##입": 750,
      "##처": 751,
      "##ᆻ으나": 752,
      "라": 753,
      "청와대": 754,
      "기준": 755,
      "천": 756,
      "##졌다": 757,
      "라며": 758,
      "##광": 759,
      "##락": 760,
      "역시": 761,
      "##평": 762,
      "교육": 763,
      "사회": 764,
      "있으며": 765,
      "##별": 766,
      "내용": 767,
      "##채": 768,
      "공개": 769,
      "##순": 770,
      "##약": 771,
      "만에": 772,
      "주요": 773,
      "감독은": 774,
      "결국": 775,
      "전체": 776,
      "##곡": 777,
      "또는": 778,
      "##표": 779,
      "##기도": 780,
      "##ᆯ레": 781,
      "##해서": 782,
      "기간": 783,
      "금": 784,
      "태": 785,
      "##든": 786,
      "검찰": 787,
      "##족": 788,
      "##퍼": 789,
      "온": 790,
      "개인": 791,
      "##에서도": 792,
      "##립": 793,
      "##외": 794,
      "##했다고": 795,
      "러시아": 796,
      "##언": 797,
      "##린": 798,
      "국회": 799,
      "메": 800,
      "40": 801,
      "정보": 802,
      "조선": 803,
      "##씨": 804,
      "해외": 805,
      "각각": 806,
      "열": 807,
      "청": 808,
      "발표": 809,
      "##4": 810,
      "##담": 811,
      "보인다": 812,
      "전국": 813,
      "패": 814,
      "##엔": 815,
      "변": 816,
      "##난": 817,
      "##년부터": 818,
      "##백": 819,
      "독일": 820,
      "장관": 821,
      "##망": 822,
      "##너": 823,
      "##G": 824,
      "들어": 825,
      "T": 826,
      "사이": 827,
      "##일부터": 828,
      "##자가": 829,
      "레": 830,
      "높은": 831,
      "##er": 832,
      "없이": 833,
      "않아": 834,
      "처음": 835,
      "##개월": 836,
      "제작": 837,
      "자리": 838,
      "두산": 839,
      "##와의": 840,
      "오는": 841,
      "성장": 842,
      "때문이다": 843,
      "있다는": 844,
      "##커": 845,
      "##윤": 846,
      "한화": 847,
      "생산": 848,
      "E": 849,
      "##랑": 850,
      "번째": 851,
      "공격": 852,
      "설명했다": 853,
      "2013": 854,
      "대통령은": 855,
      "게임": 856,
      "글": 857,
      "##그룹": 858,
      "기존": 859,
      "##장을": 860,
      "연기": 861,
      "행사": 862,
      "네": 863,
      "어떤": 864,
      "##곳": 865,
      "##탄": 866,
      "지난달": 867,
      "##장은": 868,
      "##품": 869,
      "음악": 870,
      "살": 871,
      "성공": 872,
      "받은": 873,
      "##6": 874,
      "##변": 875,
      "##성을": 876,
      "##봉": 877,
      "법": 878,
      "##살": 879,
      "##함": 880,
      "##이닝": 881,
      "##S": 882,
      "##본": 883,
      "##항": 884,
      "난": 885,
      "인천": 886,
      "##되지": 887,
      "##들과": 888,
      "N": 889,
      "도시": 890,
      "추진": 891,
      "편": 892,
      "##거나": 893,
      "##P": 894,
      "유럽": 895,
      "공동": 896,
      "31": 897,
      "의미": 898,
      "H": 899,
      "W": 900,
      "못했다": 901,
      "아시아": 902,
      "제공": 903,
      "관리": 904,
      "강화": 905,
      "면서": 906,
      "##B": 907,
      "있고": 908,
      "##대로": 909,
      "알려졌다": 910,
      "##명의": 911,
      "##케": 912,
      "않는다": 913,
      "베": 914,
      "확대": 915,
      "프로그램": 916,
      "##덕": 917,
      "##액": 918,
      "##ᆻ으며": 919,
      "##명을": 920,
      "있을": 921,
      "규모": 922,
      "##았다": 923,
      "##송": 924,
      "있다고": 925,
      "##자는": 926,
      "대부분": 927,
      "이용": 928,
      "유지": 929,
      "##독": 930,
      "##렸다": 931,
      "축구": 932,
      "드라마": 933,
      "차량": 934,
      "디": 935,
      "아닌": 936,
      "기록했다": 937,
      "지금": 938,
      "##하자": 939,
      "문화": 940,
      "I": 941,
      "현지": 942,
      "아들": 943,
      "으로": 944,
      "마지막": 945,
      "##경기": 946,
      "대회": 947,
      "투": 948,
      "##일까지": 949,
      "연속": 950,
      "참여": 951,
      "요": 952,
      "프로": 953,
      "##하던": 954,
      "##년간": 955,
      "정치": 956,
      "##M": 957,
      "_": 958,
      "적용": 959,
      "##개의": 960,
      "##ᆨ스": 961,
      "방송된": 962,
      "분석": 963,
      "##5": 964,
      "##례": 965,
      "##하기로": 966,
      "평": 967,
      "악": 968,
      "키": 969,
      "막": 970,
      "남자": 971,
      "##불": 972,
      "모델": 973,
      "후보": 974,
      "복": 975,
      "이미": 976,
      "##시장": 977,
      "##사를": 978,
      "집": 979,
      "않는": 980,
      "##녀": 981,
      "##쳐": 982,
      "##로부터": 983,
      "우승": 984,
      "2012": 985,
      "의해": 986,
      "대학": 987,
      "##숙": 988,
      "몸": 989,
      "##l": 990,
      "공식": 991,
      "##찬": 992,
      "##k": 993,
      "리그": 994,
      "##n": 995,
      "진출": 996,
      "있도록": 997,
      "##이자": 998,
      "용": 999,
      "너무": 1000,
      "사고": 1001,
      "출시": 1002,
      "R": 1003,
      "##F": 1004,
      "크게": 1005,
      "열렸다": 1006,
      "만들어": 1007,
      "통": 1008,
      "##&": 1009,
      "##I": 1010,
      "달리": 1011,
      "권": 1012,
      "눈": 1013,
      "아직": 1014,
      "여자": 1015,
      "##g": 1016,
      "대통령이": 1017,
      "V": 1018,
      "돌": 1019,
      "전쟁": 1020,
      "사랑": 1021,
      "과거": 1022,
      "광": 1023,
      "창": 1024,
      "##사업": 1025,
      "산업": 1026,
      "책": 1027,
      "촬영": 1028,
      "##u": 1029,
      "##총": 1030,
      "대비": 1031,
      "이하": 1032,
      "곳": 1033,
      "##빈": 1034,
      "이유": 1035,
      "그룹": 1036,
      "걸": 1037,
      "상태": 1038,
      "미국의": 1039,
      "아니다": 1040,
      "##ᆯ로": 1041,
      "무대": 1042,
      "##스타": 1043,
      "야": 1044,
      "나가": 1045,
      "##지만": 1046,
      "브랜드": 1047,
      "##al": 1048,
      "직": 1049,
      "발전": 1050,
      "하루": 1051,
      "테": 1052,
      "##이고": 1053,
      "없어": 1054,
      "확인": 1055,
      "기회": 1056,
      "전문": 1057,
      "계": 1058,
      "상대": 1059,
      "페": 1060,
      "##O": 1061,
      "수도": 1062,
      "대표는": 1063,
      "평가": 1064,
      "생": 1065,
      "전망": 1066,
      "현대": 1067,
      "관계": 1068,
      "##냐": 1069,
      "##A": 1070,
      "기대": 1071,
      "그런": 1072,
      "##로서": 1073,
      "요구": 1074,
      "이라는": 1075,
      "보내": 1076,
      "##했으며": 1077,
      "공연": 1078,
      "##하기도": 1079,
      "가족": 1080,
      "대신": 1081,
      "딸": 1082,
      "설": 1083,
      "만큼": 1084,
      "해당": 1085,
      "루": 1086,
      "##ᅵ": 1087,
      "##센터": 1088,
      "수준": 1089,
      "생활": 1090,
      "##혜": 1091,
      "언론": 1092,
      "##암": 1093,
      "함": 1094,
      "출신": 1095,
      "##습": 1096,
      "인정": 1097,
      "조직": 1098,
      "데뷔": 1099,
      "##L": 1100,
      "길": 1101,
      "formula": 1102,
      "가지": 1103,
      "##겠다": 1104,
      "인사": 1105,
      "]": 1106,
      "평균": 1107,
      "##거리": 1108,
      "더욱": 1109,
      "같이": 1110,
      "이는": 1111,
      "##술": 1112,
      "KBO": 1113,
      "쓰": 1114,
      "출연": 1115,
      "없었다": 1116,
      "##겨": 1117,
      "##[": 1118,
      "J": 1119,
      "##ᆻ습니다": 1120,
      "도입": 1121,
      "금융": 1122,
      "필요": 1123,
      "대상": 1124,
      "되는": 1125,
      "노력": 1126,
      "자유": 1127,
      "마련": 1128,
      "예정": 1129,
      "않다": 1130,
      "중앙": 1131,
      "승": 1132,
      "##T": 1133,
      "나서": 1134,
      "##축": 1135,
      "일반": 1136,
      "최종": 1137,
      "책임": 1138,
      "갖고": 1139,
      "선거": 1140,
      "결혼": 1141,
      "내가": 1142,
      "변화": 1143,
      "반면": 1144,
      "극": 1145,
      "돼": 1146,
      "있던": 1147,
      "자동차": 1148,
      "바로": 1149,
      "회": 1150,
      "물론": 1151,
      "피해": 1152,
      "소속": 1153,
      "##극": 1154,
      "인상": 1155,
      "선택": 1156,
      "##율": 1157,
      "귀": 1158,
      "거래": 1159,
      "##안타": 1160,
      "표현": 1161,
      "활약": 1162,
      "고려": 1163,
      "##베": 1164,
      "구조": 1165,
      "결": 1166,
      "사장": 1167,
      "##p": 1168,
      "글로벌": 1169,
      "##름": 1170,
      "건설": 1171,
      "오늘": 1172,
      "찾아": 1173,
      "이야기": 1174,
      "독": 1175,
      "가수": 1176,
      "##번째": 1177,
      "사람이": 1178,
      "학": 1179,
      "퍼": 1180,
      "학교": 1181,
      "2010": 1182,
      "##ᆻ기": 1183,
      "##취": 1184,
      "##션": 1185,
      "가격": 1186,
      "MBC": 1187,
      "##마다": 1188,
      "먼저": 1189,
      "집중": 1190,
      "##균": 1191,
      "혐의로": 1192,
      "##책": 1193,
      "##on": 1194,
      "버": 1195,
      "##익": 1196,
      "자신": 1197,
      "영상": 1198,
      "2011": 1199,
      "증가": 1200,
      "있게": 1201,
      "안전": 1202,
      "형": 1203,
      "정부가": 1204,
      "##ᆷ을": 1205,
      "급": 1206,
      "등에": 1207,
      "매우": 1208,
      "##K": 1209,
      "이동": 1210,
      "구성": 1211,
      "##지를": 1212,
      "경쟁": 1213,
      "투수": 1214,
      "##업체": 1215,
      "지방": 1216,
      "##성이": 1217,
      "!": 1218,
      "출전": 1219,
      "폭": 1220,
      "##페": 1221,
      "농": 1222,
      "상황": 1223,
      "시스템": 1224,
      "나라": 1225,
      "##r": 1226,
      "앞으로": 1227,
      "이름": 1228,
      "##7": 1229,
      "대구": 1230,
      "##말": 1231,
      "개선": 1232,
      "##혁": 1233,
      "광주": 1234,
      "##or": 1235,
      "##D": 1236,
      "참": 1237,
      "아파트": 1238,
      "##울": 1239,
      "어떻게": 1240,
      "TV": 1241,
      "##c": 1242,
      "방문": 1243,
      "논의": 1244,
      "체": 1245,
      "수출": 1246,
      "올림픽": 1247,
      "##상을": 1248,
      "경기도": 1249,
      "##입니다": 1250,
      "##슈": 1251,
      "먹": 1252,
      "##손": 1253,
      "경영": 1254,
      "외국인": 1255,
      "죽": 1256,
      "해결": 1257,
      "올라": 1258,
      "문재인": 1259,
      "노래": 1260,
      "연결": 1261,
      "선정": 1262,
      "##년까지": 1263,
      "있지만": 1264,
      "발견": 1265,
      "곡": 1266,
      "참가": 1267,
      "아버지": 1268,
      "60": 1269,
      "예상": 1270,
      "##ᆽ": 1271,
      "##애": 1272,
      "##씩": 1273,
      "##향": 1274,
      "영향을": 1275,
      "역할을": 1276,
      "누": 1277,
      "인구": 1278,
      "이제": 1279,
      "##하겠다": 1280,
      "##왔다": 1281,
      "##기업": 1282,
      "포함": 1283,
      "##ar": 1284,
      "##북": 1285,
      "업무": 1286,
      "합의": 1287,
      "되어": 1288,
      "##쓰": 1289,
      "보다": 1290,
      "##분기": 1291,
      "상대로": 1292,
      "후반": 1293,
      "하지": 1294,
      "표": 1295,
      "##C": 1296,
      "##30": 1297,
      "##일에": 1298,
      "역사": 1299,
      "시대": 1300,
      "##하였고": 1301,
      "##자를": 1302,
      "위치한": 1303,
      "판단": 1304,
      "##능": 1305,
      "조치": 1306,
      "인해": 1307,
      "들": 1308,
      "가능성이": 1309,
      "특": 1310,
      "출": 1311,
      "##E": 1312,
      "설명": 1313,
      "서로": 1314,
      "미래": 1315,
      "터": 1316,
      "##막": 1317,
      "항": 1318,
      "현장": 1319,
      "특별": 1320,
      "판": 1321,
      "=": 1322,
      "KIA": 1323,
      "##홍": 1324,
      "##d": 1325,
      "과정에서": 1326,
      "부분": 1327,
      "협력": 1328,
      "##악": 1329,
      "##∼": 1330,
      "설치": 1331,
      "운동": 1332,
      "내년": 1333,
      "훈련": 1334,
      "O": 1335,
      "’": 1336,
      "밤": 1337,
      "환경": 1338,
      "총리": 1339,
      "##20": 1340,
      "발생": 1341,
      "밀": 1342,
      "##협회": 1343,
      "##세기": 1344,
      "처리": 1345,
      "인기": 1346,
      "NC": 1347,
      "갈": 1348,
      "향": 1349,
      "##으": 1350,
      "가진": 1351,
      "반대": 1352,
      "2008": 1353,
      "드": 1354,
      "##an": 1355,
      "KBS": 1356,
      "##산업": 1357,
      "여행": 1358,
      "환": 1359,
      "‘": 1360,
      "##골": 1361,
      "설립": 1362,
      "좋아": 1363,
      "삼성전자": 1364,
      "##머": 1365,
      "협상": 1366,
      "환자": 1367,
      "커": 1368,
      "개최": 1369,
      "병": 1370,
      "시작했다": 1371,
      "두고": 1372,
      "##자로": 1373,
      "경기를": 1374,
      "##R": 1375,
      "상품": 1376,
      "안정": 1377,
      "2000": 1378,
      "개봉": 1379,
      "##욱": 1380,
      "##ᇁ": 1381,
      "##충": 1382,
      "감독이": 1383,
      "방안": 1384,
      "핵심": 1385,
      "##인데": 1386,
      "완전": 1387,
      "중인": 1388,
      "2009": 1389,
      "이러한": 1390,
      "등으로": 1391,
      "남성": 1392,
      "이들": 1393,
      "핵": 1394,
      "것도": 1395,
      "##옥": 1396,
      "기자": 1397,
      "거쳐": 1398,
      "##장이": 1399,
      "선수들": 1400,
      "##였던": 1401,
      "공급": 1402,
      "기능": 1403,
      "정상": 1404,
      "절": 1405,
      "##위에": 1406,
      "수원": 1407,
      "##N": 1408,
      "만든": 1409,
      "작업": 1410,
      "##폭": 1411,
      "##리는": 1412,
      "##시켜": 1413,
      "들어가": 1414,
      "##력을": 1415,
      "인터넷": 1416,
      "스타": 1417,
      "보였다": 1418,
      "##하도록": 1419,
      "일정": 1420,
      "확보": 1421,
      "대통령의": 1422,
      "##기가": 1423,
      "어느": 1424,
      "경기에서": 1425,
      "##헌": 1426,
      "측은": 1427,
      "##팅": 1428,
      "분야": 1429,
      "병원": 1430,
      "작년": 1431,
      "##10": 1432,
      "##in": 1433,
      "나왔다": 1434,
      "##섭": 1435,
      "##필": 1436,
      "지지": 1437,
      "달러": 1438,
      "고객": 1439,
      "앞두고": 1440,
      "대응": 1441,
      "##사가": 1442,
      "증": 1443,
      "대전": 1444,
      "인도": 1445,
      "모습이": 1446,
      "시절": 1447,
      "기념": 1448,
      "남북": 1449,
      "경기가": 1450,
      "##누": 1451,
      "중요한": 1452,
      "목": 1453,
      "##견": 1454,
      "##50": 1455,
      "##이라": 1456,
      "##년에는": 1457,
      "##님": 1458,
      "합": 1459,
      "몇": 1460,
      "헤": 1461,
      "##기에": 1462,
      "공간": 1463,
      "왜": 1464,
      "##기관": 1465,
      "계약": 1466,
      "전반": 1467,
      "앞": 1468,
      "U": 1469,
      "앨범": 1470,
      "##촌": 1471,
      "봉": 1472,
      "올랐다": 1473,
      "많다": 1474,
      "##년대": 1475,
      "오른": 1476,
      "##ᆼ크": 1477,
      "70": 1478,
      "##풍": 1479,
      "변호사": 1480,
      "업체": 1481,
      "##친": 1482,
      "김정은": 1483,
      "2007": 1484,
      "존재": 1485,
      "돈": 1486,
      "골": 1487,
      "대화": 1488,
      "##으며": 1489,
      "얘기": 1490,
      "SBS": 1491,
      "##탈": 1492,
      "별": 1493,
      "중이다": 1494,
      "가지고": 1495,
      "사망": 1496,
      "##관리": 1497,
      "내부": 1498,
      "상승": 1499,
      "팬들": 1500,
      "제도": 1501,
      "##U": 1502,
      "2019": 1503,
      "의혹": 1504,
      "##볼": 1505,
      "##칭": 1506,
      "접": 1507,
      "건물": 1508,
      "감사": 1509,
      "처": 1510,
      "보도했다": 1511,
      "##하거나": 1512,
      "기관": 1513,
      "##셔": 1514,
      "##ᆯ린": 1515,
      "쿠": 1516,
      "분위기": 1517,
      "##ic": 1518,
      "##기로": 1519,
      "방법": 1520,
      "##ᆮ": 1521,
      "계획이다": 1522,
      "이전": 1523,
      "동시에": 1524,
      "##척": 1525,
      "##끄": 1526,
      "싶다": 1527,
      "##re": 1528,
      "나이": 1529,
      "##쪽": 1530,
      "넥센": 1531,
      "홈": 1532,
      "자기": 1533,
      "인간": 1534,
      "행정": 1535,
      "대선": 1536,
      "##ᆫ트": 1537,
      "직원": 1538,
      "따른": 1539,
      "실시": 1540,
      "차례": 1541,
      "의사": 1542,
      "신청": 1543,
      "##으로부터": 1544,
      "레이": 1545,
      "나온다": 1546,
      "서울시": 1547,
      "##록": 1548,
      "##효": 1549,
      "다만": 1550,
      "##X": 1551,
      "은행": 1552,
      "처음으로": 1553,
      "##TV": 1554,
      "방식": 1555,
      "이란": 1556,
      "인물": 1557,
      "보면": 1558,
      "이렇게": 1559,
      "시도": 1560,
      "비판": 1561,
      "되": 1562,
      "전략": 1563,
      "외교": 1564,
      "##슨": 1565,
      "부담": 1566,
      "입장": 1567,
      "건강": 1568,
      "##60": 1569,
      "따": 1570,
      "시각": 1571,
      "혐의": 1572,
      "##월부터": 1573,
      "주로": 1574,
      "조성": 1575,
      "아래": 1576,
      "이름을": 1577,
      "##전에서": 1578,
      "##문화": 1579,
      "나타나": 1580,
      "##한다고": 1581,
      "이들은": 1582,
      "필": 1583,
      "##되면서": 1584,
      "##벌": 1585,
      "암": 1586,
      "맛": 1587,
      "##이지만": 1588,
      "##한다는": 1589,
      "사람은": 1590,
      "관련해": 1591,
      "##객": 1592,
      "식": 1593,
      "않": 1594,
      "##H": 1595,
      "##공사": 1596,
      "팔": 1597,
      "너": 1598,
      "발언": 1599,
      "좀": 1600,
      "##째": 1601,
      "측": 1602,
      "이야기를": 1603,
      "##했으나": 1604,
      "##착": 1605,
      "규제": 1606,
      "대상으로": 1607,
      "덧붙였다": 1608,
      "우려": 1609,
      "가치": 1610,
      "##주는": 1611,
      "부문": 1612,
      "##지역": 1613,
      "##ᇀ": 1614,
      "목표": 1615,
      "섬": 1616,
      "주변": 1617,
      "##흐": 1618,
      "담당": 1619,
      "매출": 1620,
      "##병원": 1621,
      "니": 1622,
      "나와": 1623,
      "##스는": 1624,
      "##<": 1625,
      "##택": 1626,
      "이해": 1627,
      "히": 1628,
      "보호": 1629,
      "##8": 1630,
      "잔": 1631,
      "도전": 1632,
      "쇼": 1633,
      "자료": 1634,
      "위기": 1635,
      "작은": 1636,
      "제주": 1637,
      "##시켰다": 1638,
      "아내": 1639,
      "문제가": 1640,
      "##대를": 1641,
      "새누리당": 1642,
      "상황에서": 1643,
      "##으로서": 1644,
      "##달": 1645,
      "때문": 1646,
      "##ᆻ": 1647,
      "격": 1648,
      "##자의": 1649,
      "강조했다": 1650,
      "캐릭터": 1651,
      "##h": 1652,
      "중단": 1653,
      "가능": 1654,
      "조정": 1655,
      "에서는": 1656,
      "##스터": 1657,
      "석": 1658,
      "잡": 1659,
      "##b": 1660,
      "##흥": 1661,
      "반응": 1662,
      "##먼": 1663,
      "팬": 1664,
      "##경제": 1665,
      "##기는": 1666,
      "##했을": 1667,
      "실제": 1668,
      "시리즈": 1669,
      "##라운드": 1670,
      "신고": 1671,
      "아니": 1672,
      "있는데": 1673,
      "써": 1674,
      "수입": 1675,
      "주식": 1676,
      "잠": 1677,
      "독립": 1678,
      "보도": 1679,
      "것이라고": 1680,
      "부상": 1681,
      "겸": 1682,
      "오르": 1683,
      "제대로": 1684,
      "평화": 1685,
      "하였다": 1686,
      "스포츠": 1687,
      "못한": 1688,
      "득점": 1689,
      "##협": 1690,
      "그동안": 1691,
      "중심으로": 1692,
      "혁신": 1693,
      "##관계": 1694,
      "시행": 1695,
      "##쳤다": 1696,
      "자연": 1697,
      "##찰": 1698,
      "##은행": 1699,
      "대해서": 1700,
      "능력": 1701,
      "있기": 1702,
      "대해서는": 1703,
      "##〈": 1704,
      "##쇼": 1705,
      "의료": 1706,
      "##삼": 1707,
      "##조사": 1708,
      "##화를": 1709,
      "준": 1710,
      "휴": 1711,
      "200": 1712,
      "##수를": 1713,
      "야구": 1714,
      "캐": 1715,
      "마무리": 1716,
      "온라인": 1717,
      "울산": 1718,
      "자체": 1719,
      "##측": 1720,
      "통과": 1721,
      "##지원": 1722,
      "##원은": 1723,
      "##80": 1724,
      "관한": 1725,
      "수비": 1726,
      "자신이": 1727,
      "여부": 1728,
      "케": 1729,
      "##수는": 1730,
      "정도로": 1731,
      "군사": 1732,
      "최초": 1733,
      "1000": 1734,
      "작가": 1735,
      "정말": 1736,
      "취": 1737,
      "전날": 1738,
      "성적": 1739,
      "목소리": 1740,
      "##감을": 1741,
      "나타났다": 1742,
      "##하라": 1743,
      "알고": 1744,
      "않을": 1745,
      "사상": 1746,
      "올리": 1747,
      "언급": 1748,
      "##at": 1749,
      "어머니": 1750,
      "35": 1751,
      "부동산": 1752,
      "검사": 1753,
      "##is": 1754,
      "빼": 1755,
      "힘": 1756,
      "역대": 1757,
      "##움": 1758,
      "주장했다": 1759,
      "관객": 1760,
      "규정": 1761,
      "단체": 1762,
      "통합": 1763,
      "전북": 1764,
      "이탈리아": 1765,
      "△": 1766,
      "포인트": 1767,
      "요청": 1768,
      "##뜨": 1769,
      "##학교": 1770,
      "##수가": 1771,
      "##연승": 1772,
      "##시설": 1773,
      "디자인": 1774,
      "나는": 1775,
      "논란": 1776,
      "그가": 1777,
      "##전을": 1778,
      "##en": 1779,
      "##ᆸ니다": 1780,
      "2006": 1781,
      "남편": 1782,
      "##회의": 1783,
      "##트로": 1784,
      "지급": 1785,
      "##회말": 1786,
      "허용": 1787,
      "##개를": 1788,
      "사람들": 1789,
      "베트남": 1790,
      "##지고": 1791,
      "##도록": 1792,
      "##월에": 1793,
      "##le": 1794,
      "##V": 1795,
      "기본": 1796,
      "즉": 1797,
      "구속": 1798,
      "일이": 1799,
      "불법": 1800,
      "음": 1801,
      "얼굴": 1802,
      "##되며": 1803,
      "거의": 1804,
      "정신": 1805,
      "활용": 1806,
      "감소": 1807,
      "인근": 1808,
      "친구": 1809,
      "##밀": 1810,
      "떠나": 1811,
      "배치": 1812,
      "위험": 1813,
      "##타점": 1814,
      "거리": 1815,
      "비해": 1816,
      "대형": 1817,
      "중심": 1818,
      "질": 1819,
      "80": 1820,
      "##블": 1821,
      "노동": 1822,
      "뿐": 1823,
      "##런": 1824,
      "옥": 1825,
      "뉴": 1826,
      "##70": 1827,
      "가능성": 1828,
      "엄": 1829,
      "위반": 1830,
      "낙": 1831,
      "##씨가": 1832,
      "정상회담": 1833,
      "##차전": 1834,
      "원내대표": 1835,
      "에너지": 1836,
      "##하지만": 1837,
      "인수": 1838,
      "삶": 1839,
      "KT": 1840,
      "풍": 1841,
      "법원": 1842,
      "응": 1843,
      "##ᆻ어요": 1844,
      "##이었던": 1845,
      "울": 1846,
      "##딩": 1847,
      "주택": 1848,
      "필요한": 1849,
      "높이": 1850,
      "홈런": 1851,
      "##링": 1852,
      "s": 1853,
      "##교육": 1854,
      "내려": 1855,
      "필요하다": 1856,
      "##슬": 1857,
      "뉴욕": 1858,
      "##ᆷ이": 1859,
      "비용": 1860,
      "세상": 1861,
      "금리": 1862,
      "지적": 1863,
      "##좌": 1864,
      "연출": 1865,
      "지정": 1866,
      "멤버": 1867,
      "확정": 1868,
      "현실": 1869,
      "수상": 1870,
      "박근혜": 1871,
      "장면": 1872,
      "많아": 1873,
      "각종": 1874,
      "학생": 1875,
      "##it": 1876,
      "##ch": 1877,
      "전달": 1878,
      "##황": 1879,
      "##원이": 1880,
      "완": 1881,
      "##연패": 1882,
      "달라": 1883,
      "스스로": 1884,
      "연장": 1885,
      "말을": 1886,
      "##에선": 1887,
      "듯": 1888,
      "그린": 1889,
      "꿈": 1890,
      "그것": 1891,
      "바꾸": 1892,
      "머리": 1893,
      "자금": 1894,
      "뉴스": 1895,
      "##ing": 1896,
      "그런데": 1897,
      "500": 1898,
      "kt": 1899,
      "##9": 1900,
      "##문을": 1901,
      "발매": 1902,
      "##했는데": 1903,
      "기억": 1904,
      "우선": 1905,
      "##는데": 1906,
      "행": 1907,
      "그대로": 1908,
      "정권": 1909,
      "대출": 1910,
      "구단": 1911,
      "제재": 1912,
      "만들었다": 1913,
      "일본의": 1914,
      "고용": 1915,
      "일자리": 1916,
      "속도": 1917,
      "민주당": 1918,
      "지키": 1919,
      "##우스": 1920,
      "##진다": 1921,
      "행동": 1922,
      "##개발": 1923,
      "##련": 1924,
      "##새": 1925,
      "##W": 1926,
      "주도": 1927,
      "미사일": 1928,
      "대표팀": 1929,
      "분양": 1930,
      "바람": 1931,
      "되고": 1932,
      "발표했다": 1933,
      "무역": 1934,
      "복귀": 1935,
      "##른": 1936,
      "##치를": 1937,
      "##걸": 1938,
      "한다는": 1939,
      "벌": 1940,
      "샤": 1941,
      "예산": 1942,
      "하다": 1943,
      "##궁": 1944,
      "위치": 1945,
      "제안": 1946,
      "소개": 1947,
      "이와": 1948,
      "입장을": 1949,
      "##ᆫ스": 1950,
      "나누": 1951,
      "##정책": 1952,
      "끝에": 1953,
      "전환": 1954,
      "변경": 1955,
      "32": 1956,
      "범죄": 1957,
      "나온": 1958,
      "##회사": 1959,
      "##조선": 1960,
      "##0": 1961,
      "존": 1962,
      "탄": 1963,
      "발사": 1964,
      "빈": 1965,
      "기사": 1966,
      "전화": 1967,
      "해야": 1968,
      "##하였으며": 1969,
      "##되": 1970,
      "##대회": 1971,
      "##별로": 1972,
      "하락": 1973,
      "참석": 1974,
      "##렌": 1975,
      "월드컵": 1976,
      "여전히": 1977,
      "시설": 1978,
      "받을": 1979,
      "비롯해": 1980,
      "##나라": 1981,
      "이유로": 1982,
      "##람": 1983,
      "##압": 1984,
      "##둥": 1985,
      "##하는데": 1986,
      "왔다": 1987,
      "올렸다": 1988,
      "##us": 1989,
      "교체": 1990,
      "꽃": 1991,
      "최고의": 1992,
      "##선수": 1993,
      "그리스": 1994,
      "치료": 1995,
      "돌아가": 1996,
      "맞아": 1997,
      "도로": 1998,
      "그러": 1999,
      "성과": 2000,
      "수행": 2001,
      "순간": 2002,
      "투입": 2003,
      "승부": 2004,
      "회의": 2005,
      "프로젝트": 2006,
      "일어나": 2007,
      "소재": 2008,
      "부회장": 2009,
      "##사는": 2010,
      "##f": 2011,
      "##위로": 2012,
      "청년": 2013,
      "스마트폰": 2014,
      "통신": 2015,
      "##명으로": 2016,
      "##이어": 2017,
      "살아": 2018,
      "받는": 2019,
      "검토": 2020,
      "관심을": 2021,
      "활동을": 2022,
      "것에": 2023,
      "##날": 2024,
      "##회초": 2025,
      "염": 2026,
      "고민": 2027,
      "티": 2028,
      "중국의": 2029,
      "선수들이": 2030,
      "알려져": 2031,
      "근무": 2032,
      "한반도": 2033,
      "##폐": 2034,
      "##없이": 2035,
      "##존": 2036,
      "##40": 2037,
      "##웅": 2038,
      "##원을": 2039,
      "풀": 2040,
      "멤버들": 2041,
      "재판": 2042,
      "호텔": 2043,
      "당국": 2044,
      "##되었으며": 2045,
      "소비자": 2046,
      "효과": 2047,
      "나섰다": 2048,
      "##되면": 2049,
      "폐": 2050,
      "2005": 2051,
      "##허": 2052,
      "소송": 2053,
      "효": 2054,
      "##금융": 2055,
      "구매": 2056,
      "제기": 2057,
      "지나": 2058,
      "초기": 2059,
      "실제로": 2060,
      "이달": 2061,
      "##글": 2062,
      "방침": 2063,
      "단계": 2064,
      "##w": 2065,
      "##십": 2066,
      "임명": 2067,
      "회복": 2068,
      "##만명": 2069,
      "##시즌": 2070,
      "맞": 2071,
      "과정": 2072,
      "##ᆫ드": 2073,
      "전기": 2074,
      "제한": 2075,
      "거부": 2076,
      "엄마": 2077,
      "##되었고": 2078,
      "전력": 2079,
      "##자리": 2080,
      "부르": 2081,
      "매력": 2082,
      "33": 2083,
      "000": 2084,
      "특정": 2085,
      "##위원": 2086,
      "##90": 2087,
      "최초로": 2088,
      "행위": 2089,
      "빛": 2090,
      "##투자": 2091,
      "넘어": 2092,
      "나오": 2093,
      "##대학교": 2094,
      "민간": 2095,
      "대체": 2096,
      "카드": 2097,
      "추천": 2098,
      "북한이": 2099,
      "##ᆯ까": 2100,
      "완성": 2101,
      "종합": 2102,
      "##때": 2103,
      "광고": 2104,
      "##달러": 2105,
      "수석": 2106,
      "##있다": 2107,
      "뛰": 2108,
      "##학과": 2109,
      "음식": 2110,
      "사실상": 2111,
      "##검": 2112,
      "류": 2113,
      "알리": 2114,
      "실패": 2115,
      "그래서": 2116,
      "깨": 2117,
      "슈": 2118,
      "##19": 2119,
      "힘을": 2120,
      "##혀": 2121,
      "충": 2122,
      "장기": 2123,
      "휘": 2124,
      "##잡": 2125,
      "말한다": 2126,
      "##하려": 2127,
      "직후": 2128,
      "##있는": 2129,
      "전자": 2130,
      "가능하다": 2131,
      "시기": 2132,
      "숙": 2133,
      "퇴": 2134,
      "##v": 2135,
      "개혁": 2136,
      "##샤": 2137,
      "이다": 2138,
      "기준으로": 2139,
      "##사회": 2140,
      "졸업": 2141,
      "##룡": 2142,
      "선언": 2143,
      "##들도": 2144,
      "소리": 2145,
      "불러": 2146,
      "구축": 2147,
      "##운동": 2148,
      "제시": 2149,
      "##파크": 2150,
      "등장": 2151,
      "##명은": 2152,
      "FC": 2153,
      "##탕": 2154,
      "##갑": 2155,
      "열리는": 2156,
      "스페인": 2157,
      "##선을": 2158,
      "##자들": 2159,
      "##률": 2160,
      "조건": 2161,
      "##생활": 2162,
      "##방송": 2163,
      "담": 2164,
      "##본부": 2165,
      "##침": 2166,
      "부인": 2167,
      "사이에": 2168,
      "300": 2169,
      "등록": 2170,
      "육": 2171,
      "프리": 2172,
      "생각한다": 2173,
      "봐": 2174,
      "잘못": 2175,
      "위원장": 2176,
      "망": 2177,
      "낮": 2178,
      "##위원장": 2179,
      "이번에": 2180,
      "판결": 2181,
      "##춘": 2182,
      "못하고": 2183,
      "철": 2184,
      "크": 2185,
      "차지": 2186,
      "##개국": 2187,
      "##접": 2188,
      "걱정": 2189,
      "##ᆼ이": 2190,
      "##스의": 2191,
      "형사": 2192,
      "푸": 2193,
      "괴": 2194,
      "##하겠다는": 2195,
      "발표한": 2196,
      "보수": 2197,
      "교통": 2198,
      "##리를": 2199,
      "눈길": 2200,
      "##같이": 2201,
      "34": 2202,
      "작": 2203,
      "그러면서": 2204,
      "그들": 2205,
      "웃음을": 2206,
      "탈": 2207,
      "오래": 2208,
      "후보자": 2209,
      "금지": 2210,
      "야당": 2211,
      "##정보": 2212,
      "있었던": 2213,
      "형태": 2214,
      "##es": 2215,
      "쉬": 2216,
      "우리나라": 2217,
      "45": 2218,
      "##거래": 2219,
      "##버스": 2220,
      "##단체": 2221,
      "하면": 2222,
      "여름": 2223,
      "부부": 2224,
      "주인공": 2225,
      "외에": 2226,
      "김성": 2227,
      "##득": 2228,
      "만들": 2229,
      "##니아": 2230,
      "##줄": 2231,
      "소설": 2232,
      "바다": 2233,
      "보는": 2234,
      "도쿄": 2235,
      "##지가": 2236,
      "끝나": 2237,
      "사례": 2238,
      "##리에": 2239,
      "##조원": 2240,
      "##홈런": 2241,
      "알아": 2242,
      "내리": 2243,
      "채용": 2244,
      "##통신": 2245,
      "타이": 2246,
      "웃": 2247,
      "범": 2248,
      "비핵화": 2249,
      "경남": 2250,
      "##맨": 2251,
      "2004": 2252,
      "느끼": 2253,
      "36": 2254,
      "관심이": 2255,
      "요리": 2256,
      "향후": 2257,
      "전혀": 2258,
      "여기에": 2259,
      "사람들이": 2260,
      "것이라는": 2261,
      "##큐": 2262,
      "##트리": 2263,
      "##올": 2264,
      "##물을": 2265,
      "시간이": 2266,
      "##호는": 2267,
      "##기구": 2268,
      "##드리": 2269,
      "노선": 2270,
      "찾": 2271,
      "##응": 2272,
      "선물": 2273,
      "##했다는": 2274,
      "그림": 2275,
      "덕": 2276,
      "있어서": 2277,
      "공유": 2278,
      "어려운": 2279,
      "도착": 2280,
      "유엔": 2281,
      "##억원을": 2282,
      "제출": 2283,
      "좋다": 2284,
      "##니까": 2285,
      "출발": 2286,
      "술": 2287,
      "##이기도": 2288,
      "투표": 2289,
      "##혹": 2290,
      "실적": 2291,
      "젊은": 2292,
      "90": 2293,
      "##업계": 2294,
      "대중": 2295,
      "공사": 2296,
      "##클": 2297,
      "##싱": 2298,
      "##념": 2299,
      "##폰": 2300,
      "부진": 2301,
      "축": 2302,
      "설계": 2303,
      "영업": 2304,
      "관광": 2305,
      "답": 2306,
      "##대학": 2307,
      "만난": 2308,
      "약속": 2309,
      "희망": 2310,
      "##500": 2311,
      "##헤": 2312,
      "밝히": 2313,
      "##ol": 2314,
      "맞춰": 2315,
      "위협": 2316,
      "정당": 2317,
      "##컵": 2318,
      "##염": 2319,
      "피해자": 2320,
      "비롯한": 2321,
      "강한": 2322,
      "홍콩": 2323,
      "있습니다": 2324,
      "단지": 2325,
      "지구": 2326,
      "##비를": 2327,
      "그렇게": 2328,
      "예술": 2329,
      "##군의": 2330,
      "보이": 2331,
      "돈을": 2332,
      "파악": 2333,
      "##스와": 2334,
      "##뿐": 2335,
      "##히려": 2336,
      "주목": 2337,
      "##제를": 2338,
      "##시키는": 2339,
      "포함한": 2340,
      "##력이": 2341,
      "영어": 2342,
      "만드는": 2343,
      "##식을": 2344,
      "쓴": 2345,
      "어렵다": 2346,
      "##가지": 2347,
      "##까": 2348,
      "##ᇂ": 2349,
      "넘는": 2350,
      "로마": 2351,
      "소유": 2352,
      "더불어민주당": 2353,
      "전문가": 2354,
      "반영": 2355,
      "##끼": 2356,
      "시민": 2357,
      "징역": 2358,
      "##느": 2359,
      "부족": 2360,
      "선고": 2361,
      "재정": 2362,
      "##활동": 2363,
      "차이": 2364,
      "승점": 2365,
      "원래": 2366,
      "감정": 2367,
      "공장": 2368,
      "##이트": 2369,
      "공개했다": 2370,
      "누구": 2371,
      "혐의를": 2372,
      "쉽게": 2373,
      "##쿼터": 2374,
      "맡아": 2375,
      "##스가": 2376,
      "사과": 2377,
      "넘": 2378,
      "##차례": 2379,
      "##학생": 2380,
      "경험": 2381,
      "대북": 2382,
      "제가": 2383,
      "형성": 2384,
      "보통": 2385,
      "땅": 2386,
      "읽": 2387,
      "법률": 2388,
      "##코리아": 2389,
      "해서": 2390,
      "지분": 2391,
      "유명": 2392,
      "##연구소": 2393,
      "원인": 2394,
      "업계": 2395,
      "우리가": 2396,
      "이재": 2397,
      "지시": 2398,
      "##겠다는": 2399,
      "##연구원": 2400,
      "##건설": 2401,
      "##귀": 2402,
      "가정": 2403,
      "맥": 2404,
      "38": 2405,
      "학생들": 2406,
      "분류": 2407,
      "충격": 2408,
      "데이터": 2409,
      "강조": 2410,
      "케이": 2411,
      "시험": 2412,
      "전투": 2413,
      "열고": 2414,
      "가능한": 2415,
      "이미지": 2416,
      "##자들이": 2417,
      "##되기": 2418,
      "##12": 2419,
      "##정부": 2420,
      "주민": 2421,
      "##톤": 2422,
      "c": 2423,
      "해도": 2424,
      "한국의": 2425,
      "사태": 2426,
      "##게임": 2427,
      "통화": 2428,
      "##다가": 2429,
      "걸쳐": 2430,
      "##합니다": 2431,
      "SNS": 2432,
      "폭발": 2433,
      "캐나다": 2434,
      "##참": 2435,
      "##혈": 2436,
      "전통": 2437,
      "질문에": 2438,
      "모바일": 2439,
      "통일": 2440,
      "당선": 2441,
      "기획": 2442,
      "##욕": 2443,
      "명의": 2444,
      "적이": 2445,
      "신규": 2446,
      "크다": 2447,
      "혼": 2448,
      "##et": 2449,
      "##성과": 2450,
      "진행된": 2451,
      "##랜드": 2452,
      "초반": 2453,
      "그리": 2454,
      "우리는": 2455,
      "매년": 2456,
      "골프": 2457,
      "지금까지": 2458,
      "과학": 2459,
      "장소": 2460,
      "##센": 2461,
      "어디": 2462,
      "##x": 2463,
      "사회적": 2464,
      "##인지": 2465,
      "후에": 2466,
      "유통": 2467,
      "##혼": 2468,
      "지휘": 2469,
      "제국": 2470,
      "패배": 2471,
      "##긴": 2472,
      "소득": 2473,
      "상황이": 2474,
      "##기간": 2475,
      "흥행": 2476,
      "##전에": 2477,
      "##주년": 2478,
      "##사의": 2479,
      "##주택": 2480,
      "인식": 2481,
      "따라서": 2482,
      "곧": 2483,
      "둘": 2484,
      "눈물": 2485,
      "슈퍼": 2486,
      "##험": 2487,
      "연방": 2488,
      "##ᄈ": 2489,
      "##들에": 2490,
      "이벤트": 2491,
      "운행": 2492,
      "갈등": 2493,
      "강남": 2494,
      "위해서": 2495,
      "가입": 2496,
      "취임": 2497,
      "종료": 2498,
      "##ᆰ": 2499,
      "##냈다": 2500,
      "칼": 2501,
      "##해진": 2502,
      "화제": 2503,
      "일대": 2504,
      "기반": 2505,
      "##승을": 2506,
      "안에": 2507,
      "##대가": 2508,
      "합류": 2509,
      "타고": 2510,
      "하며": 2511,
      "것과": 2512,
      "우승을": 2513,
      "##리가": 2514,
      "##ᆫ다는": 2515,
      "밝혀": 2516,
      "##치는": 2517,
      "본인": 2518,
      "클럽": 2519,
      "타격": 2520,
      "##플": 2521,
      "2002": 2522,
      "일을": 2523,
      "##25": 2524,
      "##장에서": 2525,
      "##촉": 2526,
      "인생": 2527,
      "생기": 2528,
      "왼쪽": 2529,
      "체제": 2530,
      "##장으로": 2531,
      "##ur": 2532,
      "차지했다": 2533,
      "했지만": 2534,
      "향해": 2535,
      "충분": 2536,
      "지적했다": 2537,
      "##서는": 2538,
      "우주": 2539,
      "홍보": 2540,
      "돌파": 2541,
      "떠": 2542,
      "운": 2543,
      "##원으로": 2544,
      "##킹": 2545,
      "김정": 2546,
      "##득점": 2547,
      "나머지": 2548,
      "옮겨": 2549,
      "자주": 2550,
      "유리": 2551,
      "##스크": 2552,
      "매장": 2553,
      "현대차": 2554,
      "정의": 2555,
      "밖에": 2556,
      "##탁": 2557,
      "##진은": 2558,
      "취업": 2559,
      "사실이": 2560,
      "페이스북": 2561,
      "##우는": 2562,
      "비율": 2563,
      "공개된": 2564,
      "속에서": 2565,
      "##루타": 2566,
      "전시": 2567,
      "특수": 2568,
      "잃": 2569,
      "##기술": 2570,
      "블랙": 2571,
      "##카드": 2572,
      "때는": 2573,
      "하여": 2574,
      "만족": 2575,
      "뭐": 2576,
      "논란이": 2577,
      "##실점": 2578,
      "한번": 2579,
      "앞에서": 2580,
      "대책": 2581,
      "신뢰": 2582,
      "##15": 2583,
      "녹": 2584,
      "신경": 2585,
      "##지도": 2586,
      "##징": 2587,
      "비밀": 2588,
      "버스": 2589,
      "동부": 2590,
      "국립": 2591,
      "##학자": 2592,
      "인터뷰에서": 2593,
      "혼자": 2594,
      "방향": 2595,
      "이때": 2596,
      "좌": 2597,
      "##라도": 2598,
      "증거": 2599,
      "##mm": 2600,
      "놓고": 2601,
      "##이드": 2602,
      "단독": 2603,
      "##자와": 2604,
      "##공원": 2605,
      "##됐고": 2606,
      "##하겠다고": 2607,
      "꼭": 2608,
      "협의": 2609,
      "달성": 2610,
      "플레이": 2611,
      "지하": 2612,
      "공무원": 2613,
      "싶어": 2614,
      "##힌": 2615,
      "압박": 2616,
      "##프로": 2617,
      "##시에": 2618,
      "수요": 2619,
      "새로": 2620,
      "못해": 2621,
      "거뒀다": 2622,
      "해석": 2623,
      "뛰어": 2624,
      "KB": 2625,
      "##려고": 2626,
      "전문가들": 2627,
      "역할": 2628,
      "겨울": 2629,
      "수술": 2630,
      "메시지": 2631,
      "높다": 2632,
      "사진을": 2633,
      "김종": 2634,
      "임금": 2635,
      "한다고": 2636,
      "선두": 2637,
      "대통령과": 2638,
      "보고서": 2639,
      "의지": 2640,
      "##벽": 2641,
      "외부": 2642,
      "호주": 2643,
      "##으면": 2644,
      "##줘": 2645,
      "##죄": 2646,
      "김영": 2647,
      "##농": 2648,
      "면": 2649,
      "철도": 2650,
      "평창": 2651,
      "##5000": 2652,
      "싸": 2653,
      "싱글": 2654,
      "전년": 2655,
      "##사로": 2656,
      "##함을": 2657,
      "동물": 2658,
      "탐": 2659,
      "수밖에": 2660,
      "김씨": 2661,
      "##el": 2662,
      "붙": 2663,
      "조금": 2664,
      "##위는": 2665,
      "##틴": 2666,
      "받": 2667,
      "바탕으로": 2668,
      "어린": 2669,
      "##월까지": 2670,
      "올려": 2671,
      "한국은": 2672,
      "비슷한": 2673,
      "확장": 2674,
      "개막": 2675,
      "##구를": 2676,
      "##ᆩ": 2677,
      "전해졌다": 2678,
      "자랑": 2679,
      "##육": 2680,
      "37": 2681,
      "엔진": 2682,
      "홈페이지": 2683,
      "말해": 2684,
      "##드는": 2685,
      "길이": 2686,
      "##성은": 2687,
      "놓": 2688,
      "##가구": 2689,
      "##대표": 2690,
      "##소를": 2691,
      "남아": 2692,
      "##리스트": 2693,
      "##하려는": 2694,
      "까": 2695,
      "2003": 2696,
      "##레이": 2697,
      "하이": 2698,
      "##죠": 2699,
      "##스티": 2700,
      "##스러운": 2701,
      "##ᆯ이": 2702,
      "검": 2703,
      "끝": 2704,
      "##11": 2705,
      "재판부": 2706,
      "컴퓨터": 2707,
      "파리": 2708,
      "##지수": 2709,
      "##데이": 2710,
      "침": 2711,
      "늘": 2712,
      "떨어진": 2713,
      "m": 2714,
      "##ed": 2715,
      "##턴": 2716,
      "대기업": 2717,
      "디지털": 2718,
      "##인이": 2719,
      "느낌": 2720,
      "크기": 2721,
      "##세가": 2722,
      "기여": 2723,
      "행복": 2724,
      "접근": 2725,
      "발생한": 2726,
      "그래": 2727,
      "자격": 2728,
      "제조": 2729,
      "김민": 2730,
      "##ᆯ수록": 2731,
      "##18": 2732,
      "목적": 2733,
      "##cm": 2734,
      "스타일": 2735,
      "들어서": 2736,
      "##찌": 2737,
      "무사": 2738,
      "##안을": 2739,
      "##해왔다": 2740,
      "##th": 2741,
      "보기": 2742,
      "마이": 2743,
      "본격적": 2744,
      "##부는": 2745,
      "상황을": 2746,
      "##점으로": 2747,
      "공공": 2748,
      "##특": 2749,
      "인터뷰": 2750,
      "김태": 2751,
      "외국": 2752,
      "전에": 2753,
      "평양": 2754,
      "벗어나": 2755,
      "개정": 2756,
      "나선": 2757,
      "##am": 2758,
      "##법을": 2759,
      "##엽": 2760,
      "마찬가지": 2761,
      "##재단": 2762,
      "아이들": 2763,
      "최소": 2764,
      "통한": 2765,
      "사드": 2766,
      "전남": 2767,
      "##大": 2768,
      "카메라": 2769,
      "##경찰서": 2770,
      "작성": 2771,
      "빠른": 2772,
      "언어": 2773,
      "##화가": 2774,
      "소화": 2775,
      "##지로": 2776,
      "##17": 2777,
      "잡아": 2778,
      "정치적": 2779,
      "공정": 2780,
      "희": 2781,
      "##닝": 2782,
      "##ro": 2783,
      "불안": 2784,
      "전용": 2785,
      "응원": 2786,
      "어린이": 2787,
      "##ᆻ나": 2788,
      "##값": 2789,
      "기타": 2790,
      "현상": 2791,
      "##자들은": 2792,
      "##읍": 2793,
      "중간": 2794,
      "도널드": 2795,
      "보여": 2796,
      "혹은": 2797,
      "냈다": 2798,
      "##널": 2799,
      "창업": 2800,
      "포기": 2801,
      "##스카": 2802,
      "타자": 2803,
      "방어": 2804,
      "대사": 2805,
      "긴": 2806,
      "부모": 2807,
      "예고": 2808,
      "절대": 2809,
      "테러": 2810,
      "##나무": 2811,
      "낮은": 2812,
      "운전": 2813,
      "역전": 2814,
      "X": 2815,
      "의견을": 2816,
      "청구": 2817,
      "##리아": 2818,
      "노조": 2819,
      "성공했다": 2820,
      "##퇴": 2821,
      "회담": 2822,
      "##풀": 2823,
      "코치": 2824,
      "아침": 2825,
      "알려진": 2826,
      "##벨": 2827,
      "##z": 2828,
      "##시아": 2829,
      "39": 2830,
      "사업을": 2831,
      "##장에": 2832,
      "##사와": 2833,
      "##21": 2834,
      "##ᆻ는지": 2835,
      "취소": 2836,
      "패션": 2837,
      "옷": 2838,
      "종목": 2839,
      "##낸": 2840,
      "구간": 2841,
      "브라질": 2842,
      "이용해": 2843,
      "몰": 2844,
      "전주": 2845,
      "##군은": 2846,
      "##몰": 2847,
      "수익": 2848,
      "##ᆻ으면": 2849,
      "##빙": 2850,
      "마을": 2851,
      "경찰에": 2852,
      "기부": 2853,
      "##st": 2854,
      "대표가": 2855,
      "##DB": 2856,
      "##만큼": 2857,
      "아니냐": 2858,
      "체포": 2859,
      "최다": 2860,
      "##수사": 2861,
      "지배": 2862,
      "##콘": 2863,
      "##ri": 2864,
      "심리": 2865,
      "##진이": 2866,
      "사전": 2867,
      "정리": 2868,
      "엔": 2869,
      "##써": 2870,
      "of": 2871,
      "##원의": 2872,
      "55": 2873,
      "대학교": 2874,
      "##ᆻ어": 2875,
      "중소기업": 2876,
      "##되자": 2877,
      "의무": 2878,
      "실험": 2879,
      "맞는": 2880,
      "양국": 2881,
      "있지": 2882,
      "##원에": 2883,
      "모아": 2884,
      "##씨의": 2885,
      "##받은": 2886,
      "##루수": 2887,
      "모양": 2888,
      "##스를": 2889,
      "##세트": 2890,
      "무기": 2891,
      "음반": 2892,
      "##kg": 2893,
      "##했습니다": 2894,
      "다니": 2895,
      "스테": 2896,
      "여야": 2897,
      "관측": 2898,
      "##뉴": 2899,
      "##로운": 2900,
      "관련된": 2901,
      "순위": 2902,
      "##대의": 2903,
      "기초": 2904,
      "얻어": 2905,
      "##닉": 2906,
      "타선": 2907,
      "##il": 2908,
      "여기": 2909,
      "워": 2910,
      "속에": 2911,
      "##놓": 2912,
      "##트를": 2913,
      "할인": 2914,
      "헌법": 2915,
      "폐지": 2916,
      "시점": 2917,
      "##라면": 2918,
      "방식으로": 2919,
      "##증권": 2920,
      "b": 2921,
      "아무": 2922,
      "셈": 2923,
      "결승": 2924,
      "국민의당": 2925,
      "낸": 2926,
      "##16": 2927,
      "대결": 2928,
      "때까지": 2929,
      "항공": 2930,
      "1990": 2931,
      "투어": 2932,
      "##푸": 2933,
      "IT": 2934,
      "은퇴": 2935,
      "주어": 2936,
      "대규모": 2937,
      "앞에": 2938,
      "펼치": 2939,
      "강력한": 2940,
      "세력": 2941,
      "비난": 2942,
      "점수": 2943,
      "꼬": 2944,
      "애플": 2945,
      "보니": 2946,
      "지내": 2947,
      "##릴": 2948,
      "소비": 2949,
      "봄": 2950,
      "민족": 2951,
      "##회를": 2952,
      "##꺼": 2953,
      "##24": 2954,
      "잡았다": 2955,
      "선임": 2956,
      "##리스": 2957,
      "중요": 2958,
      "마치": 2959,
      "씨가": 2960,
      "##자인": 2961,
      "##서비스": 2962,
      "콘텐츠": 2963,
      "밝힌": 2964,
      "자세": 2965,
      "담은": 2966,
      "반발": 2967,
      "##베르": 2968,
      "주는": 2969,
      "근거": 2970,
      "소속사": 2971,
      "##점이": 2972,
      "체험": 2973,
      "##짝": 2974,
      "공을": 2975,
      "불과": 2976,
      "공부": 2977,
      "빅": 2978,
      "##현은": 2979,
      "초대": 2980,
      "##빠": 2981,
      "##받아": 2982,
      "오픈": 2983,
      "52": 2984,
      "48": 2985,
      "되지": 2986,
      "품": 2987,
      "원칙": 2988,
      "##얼": 2989,
      "그때": 2990,
      "포함해": 2991,
      "##세대": 2992,
      "이적": 2993,
      "불구하고": 2994,
      "##14": 2995,
      "동원": 2996,
      "솔로": 2997,
      "##로써": 2998,
      "진짜": 2999,
      "싶은": 3000,
      "법안": 3001,
      "대법원": 3002,
      "예능": 3003,
      "##쉬": 3004,
      "##영은": 3005,
      "자유한국당": 3006,
      "국회의원": 3007,
      "이승": 3008,
      "의원이": 3009,
      "경고": 3010,
      "시작한": 3011,
      "##행위": 3012,
      "나오는": 3013,
      "##ra": 3014,
      "지역에서": 3015,
      "법정": 3016,
      "들고": 3017,
      "##전문": 3018,
      "나타내": 3019,
      "맡은": 3020,
      "들었다": 3021,
      "처벌": 3022,
      "##씨를": 3023,
      "##웠다": 3024,
      "##체육관에서": 3025,
      "불리는": 3026,
      "스마트": 3027,
      "볼넷": 3028,
      "##상의": 3029,
      "흐름": 3030,
      "상장": 3031,
      "체결": 3032,
      "##했기": 3033,
      "의심": 3034,
      "드러내": 3035,
      "국정": 3036,
      "늘리": 3037,
      "대만": 3038,
      "AI": 3039,
      "증시": 3040,
      "주가": 3041,
      "사무": 3042,
      "인한": 3043,
      "##학년": 3044,
      "평소": 3045,
      "49": 3046,
      "기록한": 3047,
      "늘어나": 3048,
      "지속": 3049,
      "체계": 3050,
      "##지에": 3051,
      "없다는": 3052,
      "##묘": 3053,
      "신한은행": 3054,
      "##평가": 3055,
      "지명": 3056,
      "세종": 3057,
      "연주": 3058,
      "이끄는": 3059,
      "자본": 3060,
      "진술": 3061,
      "##08": 3062,
      "하면서": 3063,
      "나무": 3064,
      "42": 3065,
      "찍": 3066,
      "집단": 3067,
      "##호선": 3068,
      "tvN": 3069,
      "자녀": 3070,
      "불리": 3071,
      "개편": 3072,
      "열어": 3073,
      "65": 3074,
      "맞서": 3075,
      "보험": 3076,
      "관심": 3077,
      "##으면서": 3078,
      "호흡": 3079,
      "##일에는": 3080,
      "##자금": 3081,
      "하는데": 3082,
      "구글": 3083,
      "##연구": 3084,
      "발행": 3085,
      "##캐": 3086,
      "제외": 3087,
      "##늘": 3088,
      "늘었다": 3089,
      "권력": 3090,
      "보장": 3091,
      "##호가": 3092,
      "압": 3093,
      "태양": 3094,
      "경우가": 3095,
      "취지": 3096,
      "종교": 3097,
      "##롱": 3098,
      "절반": 3099,
      "##이란": 3100,
      "지상": 3101,
      "머": 3102,
      "찾아가": 3103,
      "##케이": 3104,
      "반도체": 3105,
      "특검": 3106,
      "재산": 3107,
      "41": 3108,
      "##ᆷ은": 3109,
      "##시티": 3110,
      "매각": 3111,
      "작전": 3112,
      "공항": 3113,
      "쏘": 3114,
      "매체": 3115,
      "##팔": 3116,
      "##FC": 3117,
      "이정": 3118,
      "던지": 3119,
      "승리했다": 3120,
      "콘서트": 3121,
      "##레스": 3122,
      "##따": 3123,
      "않으면": 3124,
      "안보": 3125,
      "칸": 3126,
      "마리": 3127,
      "맡았다": 3128,
      "보이고": 3129,
      "안타": 3130,
      "답했다": 3131,
      "등판": 3132,
      "자산": 3133,
      "##해졌다": 3134,
      "##납": 3135,
      "수용": 3136,
      "살인": 3137,
      "자동": 3138,
      "미국과": 3139,
      "##더라": 3140,
      "주말": 3141,
      "##시킨": 3142,
      "##럴": 3143,
      "살해": 3144,
      "앤": 3145,
      "심사": 3146,
      "지역에": 3147,
      "출마": 3148,
      "이익": 3149,
      "한미": 3150,
      "가까운": 3151,
      "밑": 3152,
      "2001": 3153,
      "##맥": 3154,
      "드러냈다": 3155,
      "많았다": 3156,
      "##트라": 3157,
      "영입": 3158,
      "##임을": 3159,
      "찬": 3160,
      "최선": 3161,
      "형식": 3162,
      "적극": 3163,
      "소감": 3164,
      "되면": 3165,
      "##억달러": 3166,
      "이유는": 3167,
      "파견": 3168,
      "##멘": 3169,
      "했던": 3170,
      "펼쳐": 3171,
      "##심을": 3172,
      "##듀": 3173,
      "##칸": 3174,
      "##un": 3175,
      "궁": 3176,
      "연합": 3177,
      "##ad": 3178,
      "다이": 3179,
      "##홀": 3180,
      "##일간": 3181,
      "조작": 3182,
      "##하나": 3183,
      "어려움": 3184,
      "아베": 3185,
      "찌": 3186,
      "받지": 3187,
      "보유": 3188,
      "남부": 3189,
      "##답": 3190,
      "겪": 3191,
      "건축": 3192,
      "의한": 3193,
      "##13": 3194,
      "세워": 3195,
      "##갔다": 3196,
      "완화": 3197,
      "개념": 3198,
      "##보험": 3199,
      "신문": 3200,
      "했고": 3201,
      "##계획": 3202,
      "열차": 3203,
      "가슴": 3204,
      "신인": 3205,
      "##전자": 3206,
      "##께": 3207,
      "부정": 3208,
      "##같은": 3209,
      "맨": 3210,
      "##하려고": 3211,
      "질문": 3212,
      "##비가": 3213,
      "##ᆯ래": 3214,
      "보이는": 3215,
      "명예": 3216,
      "##부가": 3217,
      "계약을": 3218,
      "44": 3219,
      "추격": 3220,
      "뒷": 3221,
      "채널": 3222,
      "뿐만": 3223,
      "그려졌다": 3224,
      "활": 3225,
      "##베이": 3226,
      "다소": 3227,
      "내렸다": 3228,
      "##ᆸ게": 3229,
      "##휴": 3230,
      "시선": 3231,
      "근로자": 3232,
      "총선": 3233,
      "소통": 3234,
      "제목": 3235,
      "##장관": 3236,
      "해군": 3237,
      "오른쪽": 3238,
      "사용자": 3239,
      "관계를": 3240,
      "##니스": 3241,
      "##제도": 3242,
      "수도권": 3243,
      "43": 3244,
      "사이트": 3245,
      "##04": 3246,
      "##주가": 3247,
      "강제": 3248,
      "베이징": 3249,
      "##쟁": 3250,
      "내용이": 3251,
      "요소": 3252,
      "부여": 3253,
      "##받": 3254,
      "하기": 3255,
      "항상": 3256,
      "##스테": 3257,
      "이론": 3258,
      "분리": 3259,
      "없다고": 3260,
      "혜택": 3261,
      "당초": 3262,
      "직원들": 3263,
      "열심히": 3264,
      "실력": 3265,
      "전면": 3266,
      "중에": 3267,
      "월드": 3268,
      "인증": 3269,
      "##앤": 3270,
      "없을": 3271,
      "초청": 3272,
      "##골을": 3273,
      "##엄": 3274,
      "##틀": 3275,
      "올라가": 3276,
      "##as": 3277,
      "##부를": 3278,
      "정식": 3279,
      "본사": 3280,
      "찾는": 3281,
      "자치": 3282,
      "관계자": 3283,
      "재미": 3284,
      "꾸": 3285,
      "##23": 3286,
      "##스코": 3287,
      "직전": 3288,
      "참석해": 3289,
      "##만달러": 3290,
      "연간": 3291,
      "시작으로": 3292,
      "회원": 3293,
      "아주": 3294,
      "현지시각": 3295,
      "주문": 3296,
      "프레": 3297,
      "거두": 3298,
      "##4000": 3299,
      "##98": 3300,
      "##핑": 3301,
      "반드시": 3302,
      "##웨이": 3303,
      "벽": 3304,
      "서울대": 3305,
      "46": 3306,
      "업": 3307,
      "말이": 3308,
      "##자들의": 3309,
      "얼마나": 3310,
      "사이에서": 3311,
      "##07": 3312,
      "올린": 3313,
      "묘": 3314,
      "당신": 3315,
      "##표를": 3316,
      "임시": 3317,
      "관객들": 3318,
      "상징": 3319,
      "성격": 3320,
      "도움이": 3321,
      "the": 3322,
      "스태": 3323,
      "경계": 3324,
      "최저임금": 3325,
      "##봐": 3326,
      "센터": 3327,
      "지하철": 3328,
      "금액": 3329,
      "팀이": 3330,
      "##스키": 3331,
      "국방부": 3332,
      "영업이익": 3333,
      "##ir": 3334,
      "출범": 3335,
      "##900": 3336,
      "이기": 3337,
      "강원도": 3338,
      "동생": 3339,
      "뽑": 3340,
      "헬": 3341,
      "##28": 3342,
      "빠져": 3343,
      "부탁": 3344,
      "##하다가": 3345,
      "네이버": 3346,
      "것처럼": 3347,
      "뇌": 3348,
      "맞추": 3349,
      "예비": 3350,
      "쪽": 3351,
      "75": 3352,
      "이곳": 3353,
      "400": 3354,
      "등과": 3355,
      "##정을": 3356,
      "쓸": 3357,
      "p": 3358,
      "증가했다": 3359,
      "##35": 3360,
      "##컬": 3361,
      "##200": 3362,
      "##27": 3363,
      "등에서": 3364,
      "다수": 3365,
      "남은": 3366,
      "후원": 3367,
      "유사": 3368,
      "일단": 3369,
      "##연맹": 3370,
      "포항": 3371,
      "강원": 3372,
      "FIFA": 3373,
      "명칭": 3374,
      "사는": 3375,
      "옛": 3376,
      "빠르게": 3377,
      "띄": 3378,
      "##ᆯ링": 3379,
      "##지지": 3380,
      "까지": 3381,
      "명령": 3382,
      "작용": 3383,
      "떨어지": 3384,
      "##지구": 3385,
      "동맹": 3386,
      "##도시": 3387,
      "의견": 3388,
      "탄생": 3389,
      "짜": 3390,
      "멕시코": 3391,
      "별도": 3392,
      "##89": 3393,
      "밴드": 3394,
      "저녁": 3395,
      "없고": 3396,
      "##칠": 3397,
      "표시": 3398,
      "무엇": 3399,
      "마르": 3400,
      "47": 3401,
      "시장에서": 3402,
      "시위": 3403,
      "##서울": 3404,
      "영역": 3405,
      "##켜": 3406,
      "받는다": 3407,
      "경쟁력": 3408,
      "지속적": 3409,
      "연습": 3410,
      "##시키고": 3411,
      "냉": 3412,
      "잠실": 3413,
      "본다": 3414,
      "활성화": 3415,
      "요즘": 3416,
      "59": 3417,
      "##다고": 3418,
      "##밖에": 3419,
      "탑재": 3420,
      "원정": 3421,
      "##구가": 3422,
      "대기": 3423,
      "##하우스": 3424,
      "##라이": 3425,
      "선출": 3426,
      "플랫폼": 3427,
      "##듯": 3428,
      "끝내": 3429,
      "적시타": 3430,
      "돌려": 3431,
      "지사": 3432,
      "한국당": 3433,
      "##id": 3434,
      "KCC": 3435,
      "틀": 3436,
      "사기": 3437,
      "중요하다": 3438,
      "##량이": 3439,
      "##엔터테인먼트": 3440,
      "하나로": 3441,
      "CEO": 3442,
      "##확": 3443,
      "##겠다고": 3444,
      "경북": 3445,
      "높": 3446,
      "폭행": 3447,
      "웨": 3448,
      "합병": 3449,
      "대변인은": 3450,
      "갖춘": 3451,
      "영향": 3452,
      "범행": 3453,
      "##몬": 3454,
      "알게": 3455,
      "한국인": 3456,
      "대한항공": 3457,
      "##Y": 3458,
      "##초등학교": 3459,
      "없": 3460,
      "특징": 3461,
      "##개혁": 3462,
      "기다리": 3463,
      "##안전": 3464,
      "56": 3465,
      "창원": 3466,
      "##바이": 3467,
      "액": 3468,
      "##루에서": 3469,
      "##으려": 3470,
      "##단은": 3471,
      "획득": 3472,
      "##버리": 3473,
      "눈에": 3474,
      "의회": 3475,
      "대표적인": 3476,
      "마케팅": 3477,
      "가구": 3478,
      "150": 3479,
      "언": 3480,
      "만약": 3481,
      "군대": 3482,
      "짓": 3483,
      "진정": 3484,
      "종류": 3485,
      "##단을": 3486,
      "생명": 3487,
      "##ᆷ프": 3488,
      "박사": 3489,
      "아빠": 3490,
      "##몽": 3491,
      "긴급": 3492,
      "지금은": 3493,
      "IS": 3494,
      "The": 3495,
      "둔": 3496,
      "드러나": 3497,
      "메이": 3498,
      "앱": 3499,
      "듣": 3500,
      "##시키": 3501,
      "##스케": 3502,
      "좋겠다": 3503,
      "끼": 3504,
      "##먹": 3505,
      "##받았다": 3506,
      "예측": 3507,
      "기소": 3508,
      "##성장": 3509,
      "트위터": 3510,
      "적극적": 3511,
      "열었다": 3512,
      "북쪽": 3513,
      "##타수": 3514,
      "##협정": 3515,
      "과정을": 3516,
      "부대": 3517,
      "상반기": 3518,
      "총장": 3519,
      "얼마": 3520,
      "##탈삼진": 3521,
      "놀라": 3522,
      "##군이": 3523,
      "##대에": 3524,
      "충돌": 3525,
      "##만으로": 3526,
      "54": 3527,
      "##ul": 3528,
      "##꾸": 3529,
      "##면서도": 3530,
      "감염": 3531,
      "승인": 3532,
      "라디오": 3533,
      "이뤄지": 3534,
      "죽음": 3535,
      "##96": 3536,
      "넓": 3537,
      "진입": 3538,
      "##진흥": 3539,
      "##치고": 3540,
      "유도": 3541,
      "입주": 3542,
      "맺": 3543,
      "보여주": 3544,
      "##26": 3545,
      "n": 3546,
      "##대상": 3547,
      "북미": 3548,
      "당했다": 3549,
      "오랜": 3550,
      "견": 3551,
      "##과학": 3552,
      "명단": 3553,
      "##많은": 3554,
      "지도": 3555,
      "57": 3556,
      "마친": 3557,
      "혈": 3558,
      "김동": 3559,
      "사랑을": 3560,
      "가져": 3561,
      "교황": 3562,
      "지도자": 3563,
      "메르스": 3564,
      "청소년": 3565,
      "탄핵": 3566,
      "쉽지": 3567,
      "1998": 3568,
      "런던": 3569,
      "주거": 3570,
      "재개": 3571,
      "##었고": 3572,
      "하자": 3573,
      "가득": 3574,
      "지켜": 3575,
      "도움을": 3576,
      "1980": 3577,
      "색": 3578,
      "걸어": 3579,
      "연락": 3580,
      "##관을": 3581,
      "##스토": 3582,
      "유니": 3583,
      "회장이": 3584,
      "홈런을": 3585,
      "동영상": 3586,
      "단어": 3587,
      "계열사": 3588,
      "사용하는": 3589,
      "##쇠": 3590,
      "##텐": 3591,
      "CJ": 3592,
      "않게": 3593,
      "위에": 3594,
      "##6000": 3595,
      "정체": 3596,
      "51": 3597,
      "생각이": 3598,
      "낳": 3599,
      "내린": 3600,
      "이민": 3601,
      "이사": 3602,
      "##올림픽": 3603,
      "보안": 3604,
      "상당": 3605,
      "##55": 3606,
      "쌓": 3607,
      "빨리": 3608,
      "##더니": 3609,
      "배경": 3610,
      "자리에서": 3611,
      "교회": 3612,
      "기록하며": 3613,
      "동의": 3614,
      "보냈다": 3615,
      "아동": 3616,
      "사무실": 3617,
      "d": 3618,
      "기원전": 3619,
      "인력": 3620,
      "##09": 3621,
      "물러나": 3622,
      "##쯤": 3623,
      "소련": 3624,
      "북부": 3625,
      "##펜": 3626,
      "움직임": 3627,
      "##보고": 3628,
      "세금": 3629,
      "풀어": 3630,
      "##축구": 3631,
      "표정": 3632,
      "아프리카": 3633,
      "제외한": 3634,
      "마쳤다": 3635,
      "끌어": 3636,
      "##본부장": 3637,
      "관광객": 3638,
      "점검": 3639,
      "기자회견": 3640,
      "##환경": 3641,
      "걷": 3642,
      "##협력": 3643,
      "프라": 3644,
      "##경기에서": 3645,
      "##짜리": 3646,
      "못하는": 3647,
      "선보였다": 3648,
      "빌": 3649,
      "응답": 3650,
      "인권": 3651,
      "주최": 3652,
      "##발전": 3653,
      "경기에": 3654,
      "죄": 3655,
      "임대": 3656,
      "타이어뱅크": 3657,
      "의식": 3658,
      "움직이": 3659,
      "실수": 3660,
      "부과": 3661,
      "가는": 3662,
      "이사장": 3663,
      "주자": 3664,
      "주석": 3665,
      "황제": 3666,
      "자아냈다": 3667,
      "지역의": 3668,
      "미소": 3669,
      "컨": 3670,
      "하나의": 3671,
      "손을": 3672,
      "명이": 3673,
      "고위": 3674,
      "콜": 3675,
      "높아지": 3676,
      "##들어": 3677,
      "시상식": 3678,
      "특별한": 3679,
      "뒤에": 3680,
      "##97": 3681,
      "숨": 3682,
      "##현이": 3683,
      "일상": 3684,
      "FA": 3685,
      "꼽": 3686,
      "떨어져": 3687,
      "##57": 3688,
      "삼진": 3689,
      "원하는": 3690,
      "주민들": 3691,
      "네덜란드": 3692,
      "##희는": 3693,
      "갑": 3694,
      "점에서": 3695,
      "상무": 3696,
      "신호": 3697,
      "기분": 3698,
      "##민은": 3699,
      "꾸준히": 3700,
      "##시킬": 3701,
      "##장과": 3702,
      "클래식": 3703,
      "##영화": 3704,
      "##ter": 3705,
      "벌어진": 3706,
      "##金": 3707,
      "공격을": 3708,
      "##밥": 3709,
      "##한테": 3710,
      "즐기": 3711,
      "##체를": 3712,
      "화면": 3713,
      "싱가포르": 3714,
      "논": 3715,
      "##회에": 3716,
      "##정은": 3717,
      "평가를": 3718,
      "블루": 3719,
      "##월에는": 3720,
      "옆": 3721,
      "썼다": 3722,
      "##선의": 3723,
      "##해온": 3724,
      "육군": 3725,
      "고양": 3726,
      "플레이오프": 3727,
      "##빛": 3728,
      "펼쳤다": 3729,
      "##섬": 3730,
      "웃음": 3731,
      "미국에서": 3732,
      "빠지": 3733,
      "##기록": 3734,
      "##8000": 3735,
      "문자": 3736,
      "지어": 3737,
      "출판": 3738,
      "##법인": 3739,
      "유명한": 3740,
      "##비서관": 3741,
      "끝난": 3742,
      "여의도": 3743,
      "밥": 3744,
      "Y": 3745,
      "인사를": 3746,
      "##피안타": 3747,
      "1999": 3748,
      "##이던": 3749,
      "##ᆻ냐": 3750,
      "##김": 3751,
      "##어로": 3752,
      "의장": 3753,
      "##BC": 3754,
      "극장": 3755,
      "##넣": 3756,
      "다리": 3757,
      "f": 3758,
      "마크": 3759,
      "미디어": 3760,
      "좋지": 3761,
      "53": 3762,
      "기대감": 3763,
      "지진": 3764,
      "##기와": 3765,
      "판사": 3766,
      "역임": 3767,
      "임원": 3768,
      "##ation": 3769,
      "여당": 3770,
      "##한다면": 3771,
      "끌었다": 3772,
      "동기": 3773,
      "벌어": 3774,
      "##물이": 3775,
      "버전": 3776,
      "##럽": 3777,
      "내야": 3778,
      "##os": 3779,
      "##함으로써": 3780,
      "##장의": 3781,
      "##ow": 3782,
      "쌍": 3783,
      "택시": 3784,
      "동료": 3785,
      "##차전에서": 3786,
      "것이라": 3787,
      "매주": 3788,
      "##위가": 3789,
      "##솔": 3790,
      "익": 3791,
      "바라": 3792,
      "채택": 3793,
      "이내": 3794,
      "액션": 3795,
      "공감": 3796,
      "라이": 3797,
      "굳": 3798,
      "##37": 3799,
      "EU": 3800,
      "신분": 3801,
      "어려워": 3802,
      "##프리": 3803,
      "비상": 3804,
      "그녀는": 3805,
      "##사에": 3806,
      "바이오": 3807,
      "본선": 3808,
      "같아": 3809,
      "##여명": 3810,
      "##ᆻ다고": 3811,
      "하반기": 3812,
      "이혼": 3813,
      "문학": 3814,
      "개의": 3815,
      "##르는": 3816,
      "축하": 3817,
      "이틀": 3818,
      "인도네시아": 3819,
      "방영": 3820,
      "여기서": 3821,
      "위해서는": 3822,
      "잉글랜드": 3823,
      "애니메이션": 3824,
      "Q": 3825,
      "##화된": 3826,
      "##구장에서": 3827,
      "손흥민": 3828,
      "탈출": 3829,
      "##컨": 3830,
      "##山": 3831,
      "무료": 3832,
      "##29": 3833,
      "카페": 3834,
      "##하다는": 3835,
      "받아들이": 3836,
      "가까이": 3837,
      "분노": 3838,
      "더불어": 3839,
      "외교부": 3840,
      "저는": 3841,
      "추정": 3842,
      "정치인": 3843,
      "현지시간": 3844,
      "교사": 3845,
      "맹": 3846,
      "바란다": 3847,
      "##탑": 3848,
      "##비아": 3849,
      "##시대": 3850,
      "MC": 3851,
      "만루": 3852,
      "##ay": 3853,
      "##튼": 3854,
      "향한": 3855,
      "##계약": 3856,
      "오리온": 3857,
      "신설": 3858,
      "##신문": 3859,
      "표준": 3860,
      "넘게": 3861,
      "미리": 3862,
      "엘": 3863,
      "##룸": 3864,
      "##적이고": 3865,
      "상하이": 3866,
      "설정": 3867,
      "키우": 3868,
      "발휘": 3869,
      "##휘": 3870,
      "척": 3871,
      "투구": 3872,
      "소방": 3873,
      "화학": 3874,
      "연구원": 3875,
      "육성": 3876,
      "늦": 3877,
      "##젠": 3878,
      "남녀": 3879,
      "맡": 3880,
      "백악관": 3881,
      "일제": 3882,
      "흥": 3883,
      "미국이": 3884,
      "차별": 3885,
      "##텍": 3886,
      "훨씬": 3887,
      "##칙": 3888,
      "잠시": 3889,
      "58": 3890,
      "듣고": 3891,
      "비중": 3892,
      "##소리": 3893,
      "미군": 3894,
      "스웨덴": 3895,
      "사퇴": 3896,
      "예상된다": 3897,
      "매일": 3898,
      "임기": 3899,
      "선사": 3900,
      "커피": 3901,
      "진단": 3902,
      "기업의": 3903,
      "특성": 3904,
      "말라": 3905,
      "5000": 3906,
      "재무": 3907,
      "장비": 3908,
      "귀국": 3909,
      "분석했다": 3910,
      "##ᆯ프": 3911,
      "가동": 3912,
      "빠": 3913,
      "고등학교": 3914,
      "00": 3915,
      "개입": 3916,
      "프로농구": 3917,
      "입고": 3918,
      "##보증": 3919,
      "갑자기": 3920,
      "하늘": 3921,
      "##ᅥ": 3922,
      "부품": 3923,
      "하겠다": 3924,
      "##39": 3925,
      "2020": 3926,
      "편성": 3927,
      "거주": 3928,
      "빠진": 3929,
      "##사인": 3930,
      "모여": 3931,
      "향상": 3932,
      "##벼": 3933,
      "서부": 3934,
      "했는데": 3935,
      "권리": 3936,
      "커지": 3937,
      "몰아": 3938,
      "출연해": 3939,
      "##모토": 3940,
      "철학": 3941,
      "##스포츠": 3942,
      "64": 3943,
      "##튜": 3944,
      "##타운": 3945,
      "##단이": 3946,
      "리드": 3947,
      "##번호": 3948,
      "##콜": 3949,
      "##단지": 3950,
      "도중": 3951,
      "선수가": 3952,
      "노출": 3953,
      "##소득": 3954,
      "처분": 3955,
      "보낸": 3956,
      "##티브": 3957,
      "영국의": 3958,
      "##ᅱ": 3959,
      "뜨거운": 3960,
      "##ia": 3961,
      "같": 3962,
      "결합": 3963,
      "로봇": 3964,
      "관세": 3965,
      "믿": 3966,
      "세대": 3967,
      "넘기": 3968,
      "베어스": 3969,
      "##36": 3970,
      "##38": 3971,
      "##옹": 3972,
      "##전쟁": 3973,
      "집회": 3974,
      "##단계": 3975,
      "##세의": 3976,
      "챔피언": 3977,
      "1997": 3978,
      "필리핀": 3979,
      "마치고": 3980,
      "상황에": 3981,
      "집행": 3982,
      "밟": 3983,
      "소녀": 3984,
      "세우": 3985,
      "시작된": 3986,
      "##픽": 3987,
      "통산": 3988,
      "출석": 3989,
      "##국가": 3990,
      "바뀌": 3991,
      "##석은": 3992,
      "##더라도": 3993,
      "정규": 3994,
      "##빌": 3995,
      "##민이": 3996,
      "63": 3997,
      "##실장": 3998,
      "김재": 3999,
      "담긴": 4000,
      "##했었다": 4001,
      "##성의": 4002,
      "3000": 4003,
      "##22": 4004,
      "##사건": 4005,
      "판정": 4006,
      "##드로": 4007,
      "그녀": 4008,
      "근처": 4009,
      "도발": 4010,
      "만남": 4011,
      "들어오": 4012,
      "##ot": 4013,
      "호투": 4014,
      "걸그룹": 4015,
      "절차": 4016,
      "달려": 4017,
      "##킨": 4018,
      "새롭": 4019,
      "화재": 4020,
      "##페이": 4021,
      "##맞": 4022,
      "태국": 4023,
      "사법": 4024,
      "쥐": 4025,
      "##文": 4026,
      "떨": 4027,
      "복지": 4028,
      "##ᆻ었다": 4029,
      "불편": 4030,
      "##뢰": 4031,
      "##오는": 4032,
      "##「": 4033,
      "봤다": 4034,
      "##단의": 4035,
      "있었지만": 4036,
      "이어졌다": 4037,
      "굴": 4038,
      "##국제": 4039,
      "제공한다": 4040,
      "소프트웨어": 4041,
      "기업이": 4042,
      "결정했다": 4043,
      "수치": 4044,
      "##해져": 4045,
      "기계": 4046,
      "김상": 4047,
      "콘": 4048,
      "아이돌": 4049,
      "묻": 4050,
      "##행사": 4051,
      "유로": 4052,
      "다루": 4053,
      "NH": 4054,
      "호소": 4055,
      "##른바": 4056,
      "##시스템": 4057,
      "##um": 4058,
      "택": 4059,
      "상황이다": 4060,
      "주연": 4061,
      "숫자": 4062,
      "##ᆻ죠": 4063,
      "##브리": 4064,
      "##보는": 4065,
      "태어나": 4066,
      "구입": 4067,
      "선박": 4068,
      "인스타그램": 4069,
      "##검사": 4070,
      "터키": 4071,
      "##31": 4072,
      "가량": 4073,
      "바라보": 4074,
      "##선이": 4075,
      "입단": 4076,
      "61": 4077,
      "요인": 4078,
      "정확한": 4079,
      "##배우": 4080,
      "##점에서": 4081,
      "태도": 4082,
      "##혔다": 4083,
      "정기": 4084,
      "##ᆷ과": 4085,
      "깊은": 4086,
      "우려가": 4087,
      "##34": 4088,
      "마시": 4089,
      "##대는": 4090,
      "뛰어난": 4091,
      "##이기": 4092,
      "긴장": 4093,
      "##감이": 4094,
      "##보이": 4095,
      "홀": 4096,
      "창출": 4097,
      "##받는": 4098,
      "##포인트": 4099,
      "다르다": 4100,
      "중구": 4101,
      "라인": 4102,
      "의도": 4103,
      "##당한": 4104,
      "국회에서": 4105,
      "덕분에": 4106,
      "##라인": 4107,
      "##7000": 4108,
      "##조차": 4109,
      "여론": 4110,
      "##동에": 4111,
      "이주": 4112,
      "프리미엄": 4113,
      "사용할": 4114,
      "최저": 4115,
      "나오고": 4116,
      "##뿐만": 4117,
      "총재": 4118,
      "식당": 4119,
      "접수": 4120,
      "않도록": 4121,
      "동쪽": 4122,
      "변신": 4123,
      "##33": 4124,
      "쓰는": 4125,
      "지점": 4126,
      "국민의": 4127,
      "운영하는": 4128,
      "##ᆻ으니": 4129,
      "##에만": 4130,
      "징계": 4131,
      "넘겨": 4132,
      "##쥐": 4133,
      "이성": 4134,
      "값": 4135,
      "인하": 4136,
      "에이": 4137,
      "##300": 4138,
      "이것은": 4139,
      "워싱턴": 4140,
      "##부문": 4141,
      "일반적으로": 4142,
      "계산": 4143,
      "말씀": 4144,
      "##들로": 4145,
      "##프라": 4146,
      "##줬다": 4147,
      "범위": 4148,
      "처음이다": 4149,
      "##되기도": 4150,
      "##관은": 4151,
      "다녀": 4152,
      "##李": 4153,
      "##개로": 4154,
      "수정": 4155,
      "##라스": 4156,
      "이종": 4157,
      "##뚜": 4158,
      "St": 4159,
      "물질": 4160,
      "끊": 4161,
      "늘어난": 4162,
      "중에서": 4163,
      "KGC": 4164,
      "주고": 4165,
      "자신감": 4166,
      "유일한": 4167,
      "서쪽": 4168,
      "이들이": 4169,
      "##관이": 4170,
      "가졌다": 4171,
      "구분": 4172,
      "형제": 4173,
      "84": 4174,
      "힘든": 4175,
      "적은": 4176,
      "운용": 4177,
      "##회에서": 4178,
      "62": 4179,
      "##구역": 4180,
      "넣어": 4181,
      "산하": 4182,
      "스토리": 4183,
      "강남구": 4184,
      "##ut": 4185,
      "##릉": 4186,
      "뮤지컬": 4187,
      "식품": 4188,
      "##32": 4189,
      "인민": 4190,
      "##밍": 4191,
      "구체적인": 4192,
      "조기": 4193,
      "능": 4194,
      "진행됐다": 4195,
      "쳐": 4196,
      "세월호": 4197,
      "잡고": 4198,
      "현금": 4199,
      "걸리": 4200,
      "플라": 4201,
      "공화국": 4202,
      "만화": 4203,
      "##보니": 4204,
      "깜짝": 4205,
      "화려한": 4206,
      "##예술": 4207,
      "집에": 4208,
      "앞선": 4209,
      "검증": 4210,
      "현장에서": 4211,
      "##볼넷": 4212,
      "제거": 4213,
      "승강장": 4214,
      "##J": 4215,
      "공모": 4216,
      "받게": 4217,
      "헌": 4218,
      "##하다고": 4219,
      "##과정": 4220,
      "##석이": 4221,
      "다섯": 4222,
      "##다운": 4223,
      "목적으로": 4224,
      "##48": 4225,
      "##자동차": 4226,
      "기독교": 4227,
      "극복": 4228,
      "활발": 4229,
      "성인": 4230,
      "##뿌": 4231,
      "출연했다": 4232,
      "무대에": 4233,
      "나올": 4234,
      "##놓고": 4235,
      "##42": 4236,
      "주제": 4237,
      "구성된": 4238,
      "희생": 4239,
      "##꼬": 4240,
      "직업": 4241,
      "##op": 4242,
      "##억원으로": 4243,
      "##600": 4244,
      "데이": 4245,
      "대리": 4246,
      "덜": 4247,
      "코스": 4248,
      "이름으로": 4249,
      "코리아": 4250,
      "예선": 4251,
      "드리": 4252,
      "피부": 4253,
      "벗": 4254,
      "지켜보": 4255,
      "##타워": 4256,
      "혁명": 4257,
      "##해달라": 4258,
      "##컷": 4259,
      "##53": 4260,
      "동아일보": 4261,
      "곳이": 4262,
      "##ᆻ느냐": 4263,
      "예방": 4264,
      "##뮤": 4265,
      "뜨": 4266,
      "##교회": 4267,
      "지식": 4268,
      "##흡": 4269,
      "무리": 4270,
      "고백": 4271,
      "싸움": 4272,
      "이래": 4273,
      "스크린": 4274,
      "타율": 4275,
      "##려면": 4276,
      "내고": 4277,
      "허가": 4278,
      "##하시": 4279,
      "중국이": 4280,
      "개정안": 4281,
      "불펜": 4282,
      "굉장ᄒ": 4283,
      "##부에": 4284,
      "##ᆯ리아": 4285,
      "##ᆯ루": 4286,
      "##없는": 4287,
      "후보는": 4288,
      "##43": 4289,
      "1970": 4290,
      "건너": 4291,
      "곽": 4292,
      "일으키": 4293,
      "##뷰": 4294,
      "##자에게": 4295,
      "되기": 4296,
      "원을": 4297,
      "##패로": 4298,
      "땅볼": 4299,
      "가리": 4300,
      "비행": 4301,
      "바이": 4302,
      "파괴": 4303,
      "위원장은": 4304,
      "축제": 4305,
      "얻었다": 4306,
      "경력": 4307,
      "끝까지": 4308,
      "생각해": 4309,
      "##선은": 4310,
      "선수단": 4311,
      "동일": 4312,
      "공포": 4313,
      "맞이": 4314,
      "살리": 4315,
      "고통": 4316,
      "##신도시": 4317,
      "전원": 4318,
      "점점": 4319,
      "북한은": 4320,
      "이루어": 4321,
      "##GM": 4322,
      "에어": 4323,
      "빚": 4324,
      "국정원": 4325,
      "결론": 4326,
      "개통": 4327,
      "차관": 4328,
      "미세먼지": 4329,
      "##항공": 4330,
      "##문제": 4331,
      "출장": 4332,
      "당연": 4333,
      "분야에서": 4334,
      "베이": 4335,
      "GS": 4336,
      "##식이": 4337,
      "전개": 4338,
      "내에서": 4339,
      "주의": 4340,
      "##군에": 4341,
      "예를": 4342,
      "문서": 4343,
      "뿌리": 4344,
      "##국의": 4345,
      "낮아": 4346,
      "우리은행": 4347,
      "폐쇄": 4348,
      "1996": 4349,
      "이슬람": 4350,
      "목표로": 4351,
      "##야구": 4352,
      "나눠": 4353,
      "국내에서": 4354,
      "상처": 4355,
      "양성": 4356,
      "복수": 4357,
      "있으면": 4358,
      "계기로": 4359,
      "##상품": 4360,
      "속하는": 4361,
      "##ig": 4362,
      "주제로": 4363,
      "갔다": 4364,
      "##사관": 4365,
      "본격": 4366,
      "##100": 4367,
      "시리아": 4368,
      "최씨": 4369,
      "이름이": 4370,
      "앞둔": 4371,
      "##무역": 4372,
      "##기획": 4373,
      "상업": 4374,
      "통제": 4375,
      "##구조": 4376,
      "고급": 4377,
      "조지": 4378,
      "해주": 4379,
      "중동": 4380,
      "네트워크": 4381,
      "##경은": 4382,
      "1995": 4383,
      "착": 4384,
      "앞세워": 4385,
      "제작진": 4386,
      "##아이": 4387,
      "##대책": 4388,
      "형태로": 4389,
      "##씨에게": 4390,
      "먹는": 4391,
      "##學": 4392,
      "곳에": 4393,
      "##화학": 4394,
      "##뇌": 4395,
      "몰려": 4396,
      "자라": 4397,
      "매출액": 4398,
      "보이지": 4399,
      "##제로": 4400,
      "캠프": 4401,
      "1994": 4402,
      "폴": 4403,
      "##시마": 4404,
      "전까지": 4405,
      "있": 4406,
      "##선거": 4407,
      "포즈": 4408,
      "감동": 4409,
      "취하고": 4410,
      "앙": 4411,
      "##봤다": 4412,
      "신임": 4413,
      "##우가": 4414,
      "생존": 4415,
      "현재까지": 4416,
      "##므": 4417,
      "##세요": 4418,
      "유치": 4419,
      "배출": 4420,
      "라이브": 4421,
      "에이스": 4422,
      "부장판사": 4423,
      "높아": 4424,
      "##철도": 4425,
      "확산": 4426,
      "비교": 4427,
      "댓글": 4428,
      "##국이": 4429,
      "##감독": 4430,
      "입증": 4431,
      "반복": 4432,
      "##분쯤": 4433,
      "장르": 4434,
      "차이가": 4435,
      "마약": 4436,
      "공약": 4437,
      "위로": 4438,
      "청주": 4439,
      "##느냐": 4440,
      "뒤를": 4441,
      "측면": 4442,
      "욕": 4443,
      "자살": 4444,
      "##첩": 4445,
      "부사장": 4446,
      "파트너": 4447,
      "김진": 4448,
      "여러분": 4449,
      "식사": 4450,
      "이끌었다": 4451,
      "사람들은": 4452,
      "##51": 4453,
      "##덴": 4454,
      "66": 4455,
      "##프트": 4456,
      "떼": 4457,
      "편집": 4458,
      "우수": 4459,
      "##피스": 4460,
      "후속": 4461,
      "시장에": 4462,
      "기업들": 4463,
      "않기": 4464,
      "들어갔다": 4465,
      "이전에": 4466,
      "강력": 4467,
      "포스코": 4468,
      "때부터": 4469,
      "거듭": 4470,
      "원장": 4471,
      "복합": 4472,
      "68": 4473,
      "##려는": 4474,
      "단일": 4475,
      "증명": 4476,
      "있었고": 4477,
      "##2000": 4478,
      "관계자들": 4479,
      "##야마": 4480,
      "고발": 4481,
      "알려지": 4482,
      "##중앙": 4483,
      "##ne": 4484,
      "길을": 4485,
      "##토리": 4486,
      "##였고": 4487,
      "##트는": 4488,
      "##죽": 4489,
      "##짜": 4490,
      "##팩": 4491,
      "한국시간": 4492,
      "##ᆾ": 4493,
      "칭찬": 4494,
      "측정": 4495,
      "분명": 4496,
      "모집": 4497,
      "##se": 4498,
      "않겠다": 4499,
      "전기차": 4500,
      "출입": 4501,
      "In": 4502,
      "##공장": 4503,
      "노동자": 4504,
      "##BS": 4505,
      "진행한다": 4506,
      "혼란": 4507,
      "자사": 4508,
      "맡고": 4509,
      "뮤직": 4510,
      "##즘": 4511,
      "##州": 4512,
      "히트": 4513,
      "위원": 4514,
      "상위": 4515,
      "번역": 4516,
      "검색": 4517,
      "떨어졌다": 4518,
      "Ch": 4519,
      "대표이사": 4520,
      "##공항": 4521,
      "이사회": 4522,
      "판매량": 4523,
      "제공하는": 4524,
      "해소": 4525,
      "1988": 4526,
      "##스턴": 4527,
      "##됐지만": 4528,
      "장치": 4529,
      "##상으로": 4530,
      "##ac": 4531,
      "시청자들": 4532,
      "무려": 4533,
      "곧바로": 4534,
      "72": 4535,
      "민주": 4536,
      "w": 4537,
      "##라이트": 4538,
      "##도서관": 4539,
      "법무부": 4540,
      "업종": 4541,
      "접촉": 4542,
      "협": 4543,
      "이행": 4544,
      "모르": 4545,
      "연극": 4546,
      "##롭게": 4547,
      "짐": 4548,
      "자리에": 4549,
      "전역": 4550,
      "마음이": 4551,
      "부분이": 4552,
      "##od": 4553,
      "확인할": 4554,
      "열린다": 4555,
      "파워": 4556,
      "위하여": 4557,
      "##j": 4558,
      "이듬해": 4559,
      "무슨": 4560,
      "##르트": 4561,
      "중국은": 4562,
      "##습니다": 4563,
      "법적": 4564,
      "##호로": 4565,
      "누가": 4566,
      "##쉽": 4567,
      "감독과": 4568,
      "##대학원": 4569,
      "##상은": 4570,
      "##ent": 4571,
      "참석한": 4572,
      "따로": 4573,
      "##ᆯ리스": 4574,
      "프로그램을": 4575,
      "##체육": 4576,
      "선전": 4577,
      "소식을": 4578,
      "지적이": 4579,
      "대회에서": 4580,
      "##알": 4581,
      "주력": 4582,
      "현행": 4583,
      "편의": 4584,
      "##밤": 4585,
      "인재": 4586,
      "##간의": 4587,
      "현재의": 4588,
      "시인": 4589,
      "혜": 4590,
      "이어진": 4591,
      "##럼": 4592,
      "친구들": 4593,
      "쓰고": 4594,
      "##클럽": 4595,
      "답변": 4596,
      "만들고": 4597,
      "만한": 4598,
      "벌금": 4599,
      "##꾼": 4600,
      "늘어": 4601,
      "자극": 4602,
      "뇌물": 4603,
      "##텔레콤": 4604,
      "##졌고": 4605,
      "새벽": 4606,
      "누적": 4607,
      "언제": 4608,
      "만들기": 4609,
      "##금리": 4610,
      "수십": 4611,
      "##받고": 4612,
      "t": 4613,
      "실행": 4614,
      "트레": 4615,
      "축소": 4616,
      "김경": 4617,
      "##매치": 4618,
      "장식": 4619,
      "##리바운드": 4620,
      "저지": 4621,
      "결과가": 4622,
      "##룩": 4623,
      "나중에": 4624,
      "제일": 4625,
      "소환": 4626,
      "##ie": 4627,
      "##이어서": 4628,
      "연설": 4629,
      "##능력": 4630,
      "법인": 4631,
      "##비는": 4632,
      "것이었다": 4633,
      "##400": 4634,
      "교류": 4635,
      "김용": 4636,
      "안타를": 4637,
      "옮기": 4638,
      "##조정": 4639,
      "불만": 4640,
      "##정이": 4641,
      "고소": 4642,
      "점이": 4643,
      "였다": 4644,
      "징": 4645,
      "기울": 4646,
      "참석했다": 4647,
      "##지법": 4648,
      "의원들": 4649,
      "석유": 4650,
      "##버린": 4651,
      "어깨": 4652,
      "대륙": 4653,
      "##시험": 4654,
      "##학원": 4655,
      "##겼다": 4656,
      "##and": 4657,
      "휴식": 4658,
      "##타를": 4659,
      "1992": 4660,
      "배우이다": 4661,
      "##빵": 4662,
      "정치권": 4663,
      "##AR": 4664,
      "폭력": 4665,
      "방지": 4666,
      "박정": 4667,
      "결제": 4668,
      "공기": 4669,
      "성폭행": 4670,
      "오사카": 4671,
      "수립": 4672,
      "##실에서": 4673,
      "##달라고": 4674,
      "과제": 4675,
      "튀": 4676,
      "##달라": 4677,
      "##치가": 4678,
      "##실을": 4679,
      "입학": 4680,
      "생방송": 4681,
      "힘들어": 4682,
      "안내": 4683,
      "통상": 4684,
      "배터리": 4685,
      "한국에서": 4686,
      "##마저": 4687,
      "##앙": 4688,
      "소장": 4689,
      "인공지능": 4690,
      "적자": 4691,
      "장점": 4692,
      "##ST": 4693,
      "##95": 4694,
      "##보호": 4695,
      "Co": 4696,
      "바꿔": 4697,
      "h": 4698,
      "요금": 4699,
      "김기": 4700,
      "진실": 4701,
      "합격": 4702,
      "##포럼": 4703,
      "하게": 4704,
      "##싸": 4705,
      "##넷": 4706,
      "##순위": 4707,
      "발달": 4708,
      "에게": 4709,
      "충남": 4710,
      "상임": 4711,
      "유출": 4712,
      "간의": 4713,
      "##순환": 4714,
      "생긴": 4715,
      "노사": 4716,
      "결의": 4717,
      "##벤처": 4718,
      "나아가": 4719,
      "성능": 4720,
      "자이언츠": 4721,
      "##터미널": 4722,
      "스위스": 4723,
      "오브": 4724,
      "##ᆨ시": 4725,
      "노리": 4726,
      "신라": 4727,
      "##9000": 4728,
      "중반": 4729,
      "##콤": 4730,
      "##영이": 4731,
      "뒤집": 4732,
      "##수의": 4733,
      "태어났다": 4734,
      "##디스": 4735,
      "러": 4736,
      "줄었다": 4737,
      "##72": 4738,
      "찾은": 4739,
      "이것": 4740,
      "관련한": 4741,
      "연말": 4742,
      "사건이": 4743,
      "수준으로": 4744,
      "원전": 4745,
      "짧은": 4746,
      "유력": 4747,
      "흘러": 4748,
      "선호": 4749,
      "##아시아": 4750,
      "##이라도": 4751,
      "제주도": 4752,
      "##쑤": 4753,
      "탈락": 4754,
      "##ᆫ다고": 4755,
      "안양": 4756,
      "##투어": 4757,
      "##봐야": 4758,
      "교육부": 4759,
      "손실": 4760,
      "돌아오": 4761,
      "미니": 4762,
      "조합": 4763,
      "노인": 4764,
      "##테크": 4765,
      "직무": 4766,
      "##덤": 4767,
      "줄어들": 4768,
      "보상": 4769,
      "##훈련": 4770,
      "인정받": 4771,
      "카카오": 4772,
      "##45": 4773,
      "주주": 4774,
      "스키": 4775,
      "전파": 4776,
      "브리": 4777,
      "승리로": 4778,
      "펼치고": 4779,
      "개봉한": 4780,
      "영향력": 4781,
      "화성": 4782,
      "##제가": 4783,
      "지낸": 4784,
      "전부터": 4785,
      "발굴": 4786,
      "##52": 4787,
      "##위안": 4788,
      "경기장": 4789,
      "##가량": 4790,
      "완료": 4791,
      "거절": 4792,
      "##해도": 4793,
      "실무": 4794,
      "국가대표": 4795,
      "##co": 4796,
      "상호": 4797,
      "드러났다": 4798,
      "최고위원": 4799,
      "##65": 4800,
      "채권": 4801,
      "##관광": 4802,
      "만났다": 4803,
      "그냥": 4804,
      "지냈다": 4805,
      "연봉": 4806,
      "##문학": 4807,
      "팀은": 4808,
      "##인들이": 4809,
      "아웃": 4810,
      "상승세": 4811,
      "자원": 4812,
      "사항": 4813,
      "집을": 4814,
      "세운": 4815,
      "##필드": 4816,
      "##가격": 4817,
      "예전": 4818,
      "찬성": 4819,
      "입은": 4820,
      "이영": 4821,
      "내주": 4822,
      "앉아": 4823,
      "##종의": 4824,
      "받아들여": 4825,
      "설득": 4826,
      "적어": 4827,
      "##준은": 4828,
      "##흔": 4829,
      "키워": 4830,
      "체력": 4831,
      "흑": 4832,
      "해체": 4833,
      "세웠다": 4834,
      "한계": 4835,
      "용인": 4836,
      "##하라고": 4837,
      "타이틀": 4838,
      "전자랜드": 4839,
      "말고": 4840,
      "##사단": 4841,
      "아프": 4842,
      "동반": 4843,
      "##렴": 4844,
      "건네": 4845,
      "힘입어": 4846,
      "실현": 4847,
      "찬스": 4848,
      "##식품": 4849,
      "##키스": 4850,
      "조언": 4851,
      "예약": 4852,
      "##셀": 4853,
      "손님": 4854,
      "만들어진": 4855,
      "국경": 4856,
      "##91": 4857,
      "넘어가": 4858,
      "국방": 4859,
      "클라": 4860,
      "신체": 4861,
      "권한": 4862,
      "해명": 4863,
      "비판했다": 4864,
      "성명": 4865,
      "균형": 4866,
      "전세": 4867,
      "선배": 4868,
      "##→": 4869,
      "전공": 4870,
      "##웰": 4871,
      "살고": 4872,
      "주지": 4873,
      "##권이": 4874,
      "추구": 4875,
      "##기금": 4876,
      "힘이": 4877,
      "펀드": 4878,
      "##돼야": 4879,
      "김현": 4880,
      "정비": 4881,
      "67": 4882,
      "집권": 4883,
      "정지": 4884,
      "당장": 4885,
      "한국과": 4886,
      "##리오": 4887,
      "컴백": 4888,
      "선수로": 4889,
      "해상": 4890,
      "누리": 4891,
      "##진영": 4892,
      "##실점으로": 4893,
      "받으며": 4894,
      "스포츠동아": 4895,
      "주행": 4896,
      "평균자책점": 4897,
      "신화": 4898,
      "이라": 4899,
      "점령": 4900,
      "##아웃": 4901,
      "최대한": 4902,
      "통보": 4903,
      "흔들": 4904,
      "##해주는": 4905,
      "##율이": 4906,
      "아쉬움": 4907,
      "##퀴": 4908,
      "##범죄": 4909,
      "진화": 4910,
      "##굴": 4911,
      "이슈": 4912,
      "장착": 4913,
      "포수": 4914,
      "트윈스": 4915,
      "소형": 4916,
      "74": 4917,
      "사유": 4918,
      "심판": 4919,
      "경찰이": 4920,
      "##분의": 4921,
      "단위": 4922,
      "##셨다": 4923,
      "120": 4924,
      "##國": 4925,
      "##부장": 4926,
      "##빌딩": 4927,
      "의결": 4928,
      "주관": 4929,
      "##99": 4930,
      "점차": 4931,
      "특허": 4932,
      "효과가": 4933,
      "기대를": 4934,
      "85": 4935,
      "히어로즈": 4936,
      "자체가": 4937,
      "스피": 4938,
      "##털": 4939,
      "부처": 4940,
      "기반으로": 4941,
      "무엇보다": 4942,
      "방향으로": 4943,
      "방문해": 4944,
      "성남": 4945,
      "폴란드": 4946,
      "##하니": 4947,
      "참여한": 4948,
      "1991": 4949,
      "##경영": 4950,
      "만들어내": 4951,
      "행정부": 4952,
      "문제로": 4953,
      "PC": 4954,
      "차트": 4955,
      "타구": 4956,
      "##ᆫ다면": 4957,
      "몰라": 4958,
      "할머니": 4959,
      "확": 4960,
      "음원": 4961,
      "생각했다": 4962,
      "마감": 4963,
      "##짓": 4964,
      "상영": 4965,
      "황금": 4966,
      "환율": 4967,
      "##호의": 4968,
      "미국은": 4969,
      "##이었지만": 4970,
      "##공학": 4971,
      "구조조정": 4972,
      "##텔": 4973,
      "오바마": 4974,
      "돌아온": 4975,
      "##프레": 4976,
      "아니었다": 4977,
      "차원에서": 4978,
      "오늘날": 4979,
      "검찰에": 4980,
      "##전이": 4981,
      "##시부터": 4982,
      "아름다운": 4983,
      "아르": 4984,
      "##지사": 4985,
      "중국에서": 4986,
      "웹": 4987,
      "차단": 4988,
      "일본에서": 4989,
      "서울특별시": 4990,
      "확인됐다": 4991,
      "##동안": 4992,
      "##비치": 4993,
      "시민들": 4994,
      "분쟁": 4995,
      "l": 4996,
      "홈경기": 4997,
      "실시간": 4998,
      "얻은": 4999,
      "챙기": 5000,
      "있는지": 5001,
      "고정": 5002,
      "1993": 5003,
      "##포트": 5004,
      "제임스": 5005,
      "복잡": 5006,
      "모습으로": 5007,
      "빠졌다": 5008,
      "스타트업": 5009,
      "칭": 5010,
      "항공기": 5011,
      "맞은": 5012,
      "똑같": 5013,
      "슈팅": 5014,
      "무게": 5015,
      "인프라": 5016,
      "##주기": 5017,
      "가격이": 5018,
      "진심": 5019,
      "수록": 5020,
      "남쪽": 5021,
      "개방": 5022,
      "##둬": 5023,
      "합니다": 5024,
      "부당": 5025,
      "##공간": 5026,
      "제약": 5027,
      "국민연금": 5028,
      "잡은": 5029,
      "##힐": 5030,
      "##제품": 5031,
      "##러스": 5032,
      "준다": 5033,
      "##te": 5034,
      "보건": 5035,
      "결승전": 5036,
      "##학적": 5037,
      "보유한": 5038,
      "힘들": 5039,
      "흔들리": 5040,
      "통치": 5041,
      "제정": 5042,
      "##법에": 5043,
      "따르": 5044,
      "연기를": 5045,
      "역량": 5046,
      "##세는": 5047,
      "반전": 5048,
      "리더": 5049,
      "##위원회는": 5050,
      "##기준": 5051,
      "##공단": 5052,
      "발생했다": 5053,
      "로드": 5054,
      "투자자들": 5055,
      "대거": 5056,
      "기쁨": 5057,
      "성향": 5058,
      "춤": 5059,
      "마주": 5060,
      "모임": 5061,
      "받기": 5062,
      "악화": 5063,
      "##랭": 5064,
      "##安": 5065,
      "##맛": 5066,
      "좋아하는": 5067,
      "연애": 5068,
      "상대적으로": 5069,
      "담겨": 5070,
      "기소된": 5071,
      "연계": 5072,
      "##끼리": 5073,
      "유격수": 5074,
      "증가한": 5075,
      "임직원": 5076,
      "소년": 5077,
      "##트레": 5078,
      "##고등학교": 5079,
      "국민들": 5080,
      "##05": 5081,
      "##량은": 5082,
      "말에": 5083,
      "##명과": 5084,
      "##여행": 5085,
      "##84": 5086,
      "경주": 5087,
      "##CC": 5088,
      "방탄소년단": 5089,
      "자신들": 5090,
      "한정": 5091,
      "원작": 5092,
      "아우": 5093,
      "여유": 5094,
      "이루어져": 5095,
      "저자": 5096,
      "69": 5097,
      "검찰이": 5098,
      "이수": 5099,
      "약간": 5100,
      "싸우": 5101,
      "한국에": 5102,
      "갤럭시": 5103,
      "평가했다": 5104,
      "##하나은행": 5105,
      "조심": 5106,
      "이중": 5107,
      "개별": 5108,
      "##SA": 5109,
      "출국": 5110,
      "##전략": 5111,
      "##im": 5112,
      "km": 5113,
      "물어": 5114,
      "스튜디오": 5115,
      "수학": 5116,
      "경제적": 5117,
      "1987": 5118,
      "통해서": 5119,
      "즐길": 5120,
      "저장": 5121,
      "거치": 5122,
      "##노동": 5123,
      "그쳤다": 5124,
      "##54": 5125,
      "##대표팀": 5126,
      "상상": 5127,
      "상담": 5128,
      "##국장": 5129,
      "##대출": 5130,
      "해안": 5131,
      "아이디어": 5132,
      "부총리": 5133,
      "포함된": 5134,
      "##연합": 5135,
      "##PS": 5136,
      "##투표": 5137,
      "면적은": 5138,
      "##회장": 5139,
      "이글스": 5140,
      "##팀이": 5141,
      "강경": 5142,
      "트래": 5143,
      "##연금": 5144,
      "안에서": 5145,
      "매매": 5146,
      "장애": 5147,
      "##료를": 5148,
      "##700": 5149,
      "주재": 5150,
      "##Q": 5151,
      "각자": 5152,
      "브라": 5153,
      "적발": 5154,
      "이용한": 5155,
      "공립": 5156,
      "톱": 5157,
      "인지": 5158,
      "중국과": 5159,
      "흐르": 5160,
      "보여주는": 5161,
      "박수": 5162,
      "##BA": 5163,
      "쏟아": 5164,
      "##ab": 5165,
      "##것": 5166,
      "청약": 5167,
      "섞": 5168,
      "몰리": 5169,
      "덮": 5170,
      "무시": 5171,
      "활용해": 5172,
      "딱": 5173,
      "캘리포니아": 5174,
      "천안": 5175,
      "들여": 5176,
      "곳에서": 5177,
      "고향": 5178,
      "꺼내": 5179,
      "널리": 5180,
      "현역": 5181,
      "##ᆶ": 5182,
      "##율은": 5183,
      "입장에서": 5184,
      "테스트": 5185,
      "진료": 5186,
      "이라면서": 5187,
      "처음에": 5188,
      "잡지": 5189,
      "치르": 5190,
      "위기에": 5191,
      "##지방": 5192,
      "물건": 5193,
      "목록": 5194,
      "시신": 5195,
      "많": 5196,
      "인연": 5197,
      "구속영장": 5198,
      "캠페인": 5199,
      "코스닥": 5200,
      "찾았다": 5201,
      "##사령관": 5202,
      "암살": 5203,
      "작곡": 5204,
      "되었고": 5205,
      "##88": 5206,
      "##시스": 5207,
      "꺾": 5208,
      "##東": 5209,
      "비디오": 5210,
      "수단": 5211,
      "한때": 5212,
      "승진": 5213,
      "수주": 5214,
      "감성": 5215,
      "##76": 5216,
      "##망을": 5217,
      "내내": 5218,
      "##연은": 5219,
      "있어야": 5220,
      "멀티": 5221,
      "재직": 5222,
      "##종합": 5223,
      "시작해": 5224,
      "지수": 5225,
      "왕국": 5226,
      "##三": 5227,
      "##75": 5228,
      "숲": 5229,
      "자전거": 5230,
      "##단에": 5231,
      "승객": 5232,
      "경험을": 5233,
      "임신": 5234,
      "담배": 5235,
      "심각한": 5236,
      "더블": 5237,
      "나도": 5238,
      "불가능": 5239,
      "이끌어": 5240,
      "있으나": 5241,
      "메이저리그": 5242,
      "##마리": 5243,
      "이었다": 5244,
      "국가대표팀": 5245,
      "아메리카": 5246,
      "조약": 5247,
      "무장": 5248,
      "조각": 5249,
      "##톱": 5250,
      "노무현": 5251,
      "소식": 5252,
      "코미디": 5253,
      "##농협": 5254,
      "먹고": 5255,
      "상당히": 5256,
      "이용할": 5257,
      "자회사": 5258,
      "취득": 5259,
      "넘어서": 5260,
      "사안": 5261,
      "정부와": 5262,
      "화장품": 5263,
      "독일의": 5264,
      "##이면": 5265,
      "씨의": 5266,
      "원유": 5267,
      "맥주": 5268,
      "헤어": 5269,
      "실질적": 5270,
      "관여": 5271,
      "##였지만": 5272,
      "##녕": 5273,
      "밀려": 5274,
      "참고": 5275,
      "이뤄진": 5276,
      "##틱": 5277,
      "실점": 5278,
      "in": 5279,
      "지정되었다": 5280,
      "남아있": 5281,
      "시내": 5282,
      "경선": 5283,
      "남겼다": 5284,
      "##OS": 5285,
      "경우에는": 5286,
      "파일": 5287,
      "맞았다": 5288,
      "집에서": 5289,
      "콩": 5290,
      "주전": 5291,
      "##베리": 5292,
      "##마켓": 5293,
      "놓치": 5294,
      "##세포": 5295,
      "시대에": 5296,
      "선보이고": 5297,
      "대학생": 5298,
      "인터": 5299,
      "진행했다": 5300,
      "73": 5301,
      "마운드": 5302,
      "비즈니스": 5303,
      "회계": 5304,
      "차기": 5305,
      "측이": 5306,
      "01": 5307,
      "##체계": 5308,
      "내려가": 5309,
      "국내외": 5310,
      "##ᆸ다": 5311,
      "편지": 5312,
      "휴대전화": 5313,
      "##생명": 5314,
      "지지율": 5315,
      "##타임": 5316,
      "골을": 5317,
      "대폭": 5318,
      "##램": 5319,
      "이상이": 5320,
      "세포": 5321,
      "연예인": 5322,
      "감각": 5323,
      "물량": 5324,
      "이어갔다": 5325,
      "600": 5326,
      "모았다": 5327,
      "사용한": 5328,
      "공천": 5329,
      "알레": 5330,
      "운명": 5331,
      "감시": 5332,
      "총괄": 5333,
      "대하여": 5334,
      "대표하는": 5335,
      "##업자": 5336,
      "세계에서": 5337,
      "결성": 5338,
      "##자료": 5339,
      "미술": 5340,
      "Re": 5341,
      "##ᅳ": 5342,
      "남겨": 5343,
      "##주고": 5344,
      "던져": 5345,
      "##호텔": 5346,
      "탈퇴": 5347,
      "달하는": 5348,
      "사로잡": 5349,
      "수영": 5350,
      "##3000": 5351,
      "공화당": 5352,
      "아마": 5353,
      "짧": 5354,
      "그만큼": 5355,
      "정유": 5356,
      "문제에": 5357,
      "##자산": 5358,
      "정착": 5359,
      "힐": 5360,
      "공략": 5361,
      "사정": 5362,
      "1960": 5363,
      "김모": 5364,
      "##렬": 5365,
      "수업": 5366,
      "그녀의": 5367,
      "토지": 5368,
      "그래도": 5369,
      "##협상": 5370,
      "##떠": 5371,
      "군인": 5372,
      "##회의에서": 5373,
      "집안": 5374,
      "둘째": 5375,
      "##IC": 5376,
      "원주": 5377,
      "크리스": 5378,
      "고대": 5379,
      "공군": 5380,
      "열정": 5381,
      "나갈": 5382,
      "이르는": 5383,
      "##계의": 5384,
      "지목": 5385,
      "행사에": 5386,
      "PD": 5387,
      "못한다": 5388,
      "말이다": 5389,
      "미만": 5390,
      "지었다": 5391,
      "고려해": 5392,
      "걸려": 5393,
      "##현의": 5394,
      "영토": 5395,
      "##디아": 5396,
      "각국": 5397,
      "##낭": 5398,
      "용어": 5399,
      "높이는": 5400,
      "##음악": 5401,
      "타이거즈": 5402,
      "후보로": 5403,
      "동점": 5404,
      "관중": 5405,
      "##됐다고": 5406,
      "마지막으로": 5407,
      "번호": 5408,
      "추세": 5409,
      "도심": 5410,
      "보아": 5411,
      "일어난": 5412,
      "크리": 5413,
      "모비스": 5414,
      "물었다": 5415,
      "태평양": 5416,
      "타임": 5417,
      "03": 5418,
      "전후": 5419,
      "공조": 5420,
      "말한": 5421,
      "했다고": 5422,
      "바르": 5423,
      "텔레비전": 5424,
      "##수석": 5425,
      "코드": 5426,
      "배우들": 5427,
      "##시오": 5428,
      "오스트리아": 5429,
      "한강": 5430,
      "##장치": 5431,
      "털": 5432,
      "항의": 5433,
      "##맹": 5434,
      "탁": 5435,
      "장애인": 5436,
      "##월드컵경기장": 5437,
      "재단": 5438,
      "##또": 5439,
      "##44": 5440,
      "멋진": 5441,
      "##이라면": 5442,
      "##특별": 5443,
      "입법": 5444,
      "전설": 5445,
      "이스라엘": 5446,
      "특유의": 5447,
      "##상태": 5448,
      "##벤": 5449,
      "보급": 5450,
      "76": 5451,
      "연인": 5452,
      "가스": 5453,
      "77": 5454,
      "##아가": 5455,
      "실내": 5456,
      "결혼식": 5457,
      "강하게": 5458,
      "후보가": 5459,
      "연대": 5460,
      "사라지": 5461,
      "##la": 5462,
      "##투수": 5463,
      "##딘": 5464,
      "앞으로도": 5465,
      "농구": 5466,
      "##플라": 5467,
      "떠오르": 5468,
      "##함에": 5469,
      "사직": 5470,
      "가상": 5471,
      "말레이시아": 5472,
      "##서울중앙지검": 5473,
      "##저축은행": 5474,
      "넘치는": 5475,
      "가게": 5476,
      "##껏": 5477,
      "##해진다": 5478,
      "##플레이": 5479,
      "##했": 5480,
      "##66": 5481,
      "착수": 5482,
      "윌리엄": 5483,
      "##자마자": 5484,
      "신속": 5485,
      "##교수": 5486,
      "의문": 5487,
      "##희가": 5488,
      "당일": 5489,
      "1989": 5490,
      "##ᄍ": 5491,
      "##협의회": 5492,
      "##처리": 5493,
      "##부르크": 5494,
      "개발한": 5495,
      "공개됐다": 5496,
      "##학회": 5497,
      "금융위": 5498,
      "부지": 5499,
      "##OC": 5500,
      "식물": 5501,
      "러브": 5502,
      "돌입": 5503,
      "독자": 5504,
      "있었는데": 5505,
      "바닥": 5506,
      "소비자들": 5507,
      "##tr": 5508,
      "나를": 5509,
      "폭로": 5510,
      "내에": 5511,
      "운전자": 5512,
      "싶었다": 5513,
      "##NG": 5514,
      "비리": 5515,
      "전부": 5516,
      "결심": 5517,
      "##시킨다": 5518,
      "감소했다": 5519,
      "변호인": 5520,
      "목숨": 5521,
      "공개한": 5522,
      "순수": 5523,
      "##함이": 5524,
      "거둔": 5525,
      "품질": 5526,
      "못할": 5527,
      "나란히": 5528,
      "브리핑": 5529,
      "##장애": 5530,
      "##폴": 5531,
      "메인": 5532,
      "강릉": 5533,
      "돌아왔다": 5534,
      "듯한": 5535,
      "이외에": 5536,
      "느껴": 5537,
      "대립": 5538,
      "요구했다": 5539,
      "##국민": 5540,
      "##49": 5541,
      "틈": 5542,
      "내각": 5543,
      "끌고": 5544,
      "상태에서": 5545,
      "초등학교": 5546,
      "##더스": 5547,
      "줬다": 5548,
      "토론": 5549,
      "가서": 5550,
      "교환": 5551,
      "##펀드": 5552,
      "브루": 5553,
      "녹음": 5554,
      "제조업": 5555,
      "괜찮": 5556,
      "높였다": 5557,
      "##교통": 5558,
      "가문": 5559,
      "비행기": 5560,
      "##쾌": 5561,
      "##법상": 5562,
      "95": 5563,
      "논문": 5564,
      "##공업": 5565,
      "세트": 5566,
      "SM": 5567,
      "차지한": 5568,
      "##십자": 5569,
      "공시": 5570,
      "진보": 5571,
      "역사를": 5572,
      "지닌": 5573,
      "핵실험": 5574,
      "##뱅크": 5575,
      "중학교": 5576,
      "부장": 5577,
      "##94": 5578,
      "행진": 5579,
      "무죄": 5580,
      "트리": 5581,
      "##ᆭ": 5582,
      "##카와": 5583,
      "구역": 5584,
      "태풍": 5585,
      "벤": 5586,
      "코너": 5587,
      "경우도": 5588,
      "통계": 5589,
      "쇼핑": 5590,
      "진행된다": 5591,
      "지나치": 5592,
      "필수": 5593,
      "재활": 5594,
      "간부": 5595,
      "기아차": 5596,
      "##지며": 5597,
      "##ell": 5598,
      "농업": 5599,
      "자국": 5600,
      "찾기": 5601,
      "그간": 5602,
      "시장이": 5603,
      "DB": 5604,
      "고문": 5605,
      "멀": 5606,
      "장군": 5607,
      "##소송": 5608,
      "묵": 5609,
      "##리조트": 5610,
      "비롯": 5611,
      "##첨": 5612,
      "##이었고": 5613,
      "막기": 5614,
      "특징이다": 5615,
      "의미한다": 5616,
      "차원": 5617,
      "허위": 5618,
      "평생": 5619,
      "##PO": 5620,
      "북핵": 5621,
      "직장": 5622,
      "전직": 5623,
      "중국인": 5624,
      "##논": 5625,
      "시사": 5626,
      "71": 5627,
      "##ion": 5628,
      "피의자": 5629,
      "##하고자": 5630,
      "88": 5631,
      "붕괴": 5632,
      "아일랜드": 5633,
      "먹어": 5634,
      "원자": 5635,
      "조세": 5636,
      "란": 5637,
      "않았지만": 5638,
      "##씨와": 5639,
      "당황": 5640,
      "유튜브": 5641,
      "무릎": 5642,
      "출연한": 5643,
      "##홀에서": 5644,
      "표기": 5645,
      "계열": 5646,
      "최순실": 5647,
      "북한에": 5648,
      "##86": 5649,
      "노동당": 5650,
      "펜": 5651,
      "최강": 5652,
      "##47": 5653,
      "내용은": 5654,
      "구상": 5655,
      "학습": 5656,
      "##트럭": 5657,
      "연휴": 5658,
      "시기에": 5659,
      "##당국": 5660,
      "##王": 5661,
      "추락": 5662,
      "##교육청": 5663,
      "02": 5664,
      "클리": 5665,
      "##시키기": 5666,
      "골든": 5667,
      "매입": 5668,
      "##축구연맹": 5669,
      "포착": 5670,
      "막아": 5671,
      "하락했다": 5672,
      "역사적": 5673,
      "##브라": 5674,
      "증인": 5675,
      "지연": 5676,
      "있을까": 5677,
      "##꽃": 5678,
      "##em": 5679,
      "##ᆻ지": 5680,
      "완벽한": 5681,
      "조절": 5682,
      "##子": 5683,
      "##킷": 5684,
      "가능성도": 5685,
      "안겼다": 5686,
      "그렇지": 5687,
      "않았고": 5688,
      "탑승": 5689,
      "성분": 5690,
      "##머스": 5691,
      "베테랑": 5692,
      "컸다": 5693,
      "##ap": 5694,
      "브레": 5695,
      "##만이": 5696,
      "주인": 5697,
      "마감했다": 5698,
      "##비용": 5699,
      "가리킨다": 5700,
      "##平": 5701,
      "##셰": 5702,
      "치른": 5703,
      "낮추": 5704,
      "##경찰": 5705,
      "호남": 5706,
      "##하더라도": 5707,
      "##쿼": 5708,
      "증권": 5709,
      "골키퍼": 5710,
      "패스": 5711,
      "방송에서": 5712,
      "##샷": 5713,
      "웃었다": 5714,
      "##팽": 5715,
      "비교적": 5716,
      "창조": 5717,
      "첨단": 5718,
      "어제": 5719,
      "메이저": 5720,
      "빗": 5721,
      "##85": 5722,
      "날씨": 5723,
      "##머리": 5724,
      "착용": 5725,
      "##었으나": 5726,
      "엄청난": 5727,
      "김준": 5728,
      "협박": 5729,
      "그렇다": 5730,
      "유래": 5731,
      "대장": 5732,
      "공작": 5733,
      "나누고": 5734,
      "팬들에게": 5735,
      "일종": 5736,
      "소식통": 5737,
      "있다면": 5738,
      "##56": 5739,
      "AP": 5740,
      "공격수": 5741,
      "나설": 5742,
      "입을": 5743,
      "샘": 5744,
      "##복지": 5745,
      "위성": 5746,
      "레드": 5747,
      "##푼": 5748,
      "동아": 5749,
      "해당하는": 5750,
      "##드라": 5751,
      "##그리": 5752,
      "부른다": 5753,
      "여자친구": 5754,
      "아울러": 5755,
      "칠": 5756,
      "##부대": 5757,
      "다룬": 5758,
      "##sh": 5759,
      "부근": 5760,
      "덴마크": 5761,
      "흥미": 5762,
      "인기가": 5763,
      "내일": 5764,
      "##지검": 5765,
      "에스": 5766,
      "목격": 5767,
      "점유율": 5768,
      "금감원": 5769,
      "##센터에서": 5770,
      "배제": 5771,
      "LA": 5772,
      "##경기에": 5773,
      "구현": 5774,
      "각오": 5775,
      "개헌": 5776,
      "##미터": 5777,
      "아카데미": 5778,
      "공공기관": 5779,
      "묘사": 5780,
      "둘러싼": 5781,
      "##고속도로": 5782,
      "의존": 5783,
      "##연대": 5784,
      "안팎": 5785,
      "깊이": 5786,
      "싶": 5787,
      "이웃": 5788,
      "##제국": 5789,
      "행보": 5790,
      "##67": 5791,
      "##너스": 5792,
      "지역을": 5793,
      "베스트": 5794,
      "이른다": 5795,
      "록": 5796,
      "커플": 5797,
      "##호텔에서": 5798,
      "음성": 5799,
      "야마": 5800,
      "부활": 5801,
      "부천": 5802,
      "##MA": 5803,
      "상승했다": 5804,
      "맞고": 5805,
      "방해": 5806,
      "무실점": 5807,
      "##액은": 5808,
      "출루": 5809,
      "180": 5810,
      "지도부": 5811,
      "##TO": 5812,
      "##후보": 5813,
      "병사": 5814,
      "대외": 5815,
      "박성": 5816,
      "##68": 5817,
      "매달": 5818,
      "밀어": 5819,
      "태어난": 5820,
      "##꼴": 5821,
      "댄스": 5822,
      "줄여": 5823,
      "전세계": 5824,
      "온도": 5825,
      "##46": 5826,
      "##스파": 5827,
      "BMW": 5828,
      "모르는": 5829,
      "수요가": 5830,
      "부채": 5831,
      "삼성생명": 5832,
      "건조": 5833,
      "출산": 5834,
      "##77": 5835,
      "불교": 5836,
      "친환경": 5837,
      "수집": 5838,
      "##여개": 5839,
      "낼": 5840,
      "윈": 5841,
      "되면서": 5842,
      "치고": 5843,
      "##스쿨": 5844,
      "KEB": 5845,
      "붉은": 5846,
      "심장": 5847,
      "유전자": 5848,
      "말하며": 5849,
      "관찰": 5850,
      "요시": 5851,
      "돋": 5852,
      "게이": 5853,
      "##사무소": 5854,
      "경향": 5855,
      "##ry": 5856,
      "재벌": 5857,
      "##되게": 5858,
      "수백": 5859,
      "가족들": 5860,
      "저희": 5861,
      "경험이": 5862,
      "존재한다": 5863,
      "역사상": 5864,
      "일시": 5865,
      "유니폼": 5866,
      "솔": 5867,
      "제외하고": 5868,
      "##사진": 5869,
      "##78": 5870,
      "##물질": 5871,
      "봉사": 5872,
      "##oc": 5873,
      "붙여": 5874,
      "촉구": 5875,
      "프로야구": 5876,
      "무너지": 5877,
      "테마": 5878,
      "비싸": 5879,
      "##82": 5880,
      "일주일": 5881,
      "그려": 5882,
      "살펴보": 5883,
      "소수": 5884,
      "##64": 5885,
      "대답": 5886,
      "1986": 5887,
      "최악": 5888,
      "추억": 5889,
      "##대사": 5890,
      "##사항": 5891,
      "환영": 5892,
      "##로서의": 5893,
      "##71": 5894,
      "지표": 5895,
      "유발": 5896,
      "베르": 5897,
      "규모가": 5898,
      "조사됐다": 5899,
      "철수": 5900,
      "가면": 5901,
      "난민": 5902,
      "##AS": 5903,
      "절차를": 5904,
      "데다": 5905,
      "##ine": 5906,
      "간담회": 5907,
      "조용": 5908,
      "없으며": 5909,
      "##NA": 5910,
      "화물": 5911,
      "이야기가": 5912,
      "Z": 5913,
      "말하는": 5914,
      "슈틸리케": 5915,
      "빼앗": 5916,
      "e": 5917,
      "##보좌관": 5918,
      "##SS": 5919,
      "차지하는": 5920,
      "공통": 5921,
      "보관": 5922,
      "몇몇": 5923,
      "##人": 5924,
      "예능프로그램": 5925,
      "99": 5926,
      "등급": 5927,
      "거론": 5928,
      "78": 5929,
      "밝": 5930,
      "##DI": 5931,
      "없애": 5932,
      "##웨": 5933,
      "보유하고": 5934,
      "영화제": 5935,
      "##심사": 5936,
      "수수료": 5937,
      "고교": 5938,
      "협조": 5939,
      "##SC": 5940,
      "말았다": 5941,
      "선고했다": 5942,
      "부상으로": 5943,
      "영장": 5944,
      "쌓아": 5945,
      "시나리오": 5946,
      "##ᆸ스": 5947,
      "급증": 5948,
      "것인지": 5949,
      "가톨릭": 5950,
      "나선다": 5951,
      "단기": 5952,
      "##시장에서": 5953,
      "##교사": 5954,
      "헤이": 5955,
      "자율": 5956,
      "##놔": 5957,
      "##률이": 5958,
      "판단했다": 5959,
      "띠": 5960,
      "출생": 5961,
      "오해": 5962,
      "참여했다": 5963,
      "##ive": 5964,
      "##조직": 5965,
      "포지션": 5966,
      "좋으": 5967,
      "장악": 5968,
      "##스틴": 5969,
      "##머니": 5970,
      "열애": 5971,
      "##정치": 5972,
      "##서울중앙지법": 5973,
      "##뉴스": 5974,
      "외환": 5975,
      "애정": 5976,
      "1984": 5977,
      "크레": 5978,
      "##보기": 5979,
      "주기": 5980,
      "입국": 5981,
      "SUV": 5982,
      "동해": 5983,
      "현대자동차": 5984,
      "팝": 5985,
      "##행정": 5986,
      "이뤄": 5987,
      "종전": 5988,
      "##총회": 5989,
      "대량": 5990,
      "특집": 5991,
      "안철수": 5992,
      "보완": 5993,
      "##중학교": 5994,
      "저항": 5995,
      "떠난": 5996,
      "##ᅯ": 5997,
      "와이번스": 5998,
      "##lo": 5999,
      "연령": 6000,
      "##ph": 6001,
      "펴": 6002,
      "##플리": 6003,
      "치료를": 6004,
      "마운드에": 6005,
      "##ha": 6006,
      "세계적인": 6007,
      "##블록": 6008,
      "허리": 6009,
      "유기": 6010,
      "서식": 6011,
      "##69": 6012,
      "당한": 6013,
      "간단": 6014,
      "##밭": 6015,
      "##체제": 6016,
      "플래": 6017,
      "US": 6018,
      "압력": 6019,
      "##all": 6020,
      "지원하는": 6021,
      "적지": 6022,
      "그에게": 6023,
      "##art": 6024,
      "상태로": 6025,
      "머물": 6026,
      "공정위": 6027,
      "직구": 6028,
      "캡처": 6029,
      "##등급": 6030,
      "시티": 6031,
      "81": 6032,
      "##63": 6033,
      "1985": 6034,
      "번째로": 6035,
      "증언": 6036,
      "있을지": 6037,
      "##박스": 6038,
      "할리우드": 6039,
      "##ge": 6040,
      "##ᆯ렉": 6041,
      "##피아": 6042,
      "##준호": 6043,
      "언니": 6044,
      "맞대결": 6045,
      "##스럽다": 6046,
      "광장": 6047,
      "해양": 6048,
      "##떡": 6049,
      "인공": 6050,
      "소개했다": 6051,
      "##ag": 6052,
      "79": 6053,
      "그러자": 6054,
      "AFC": 6055,
      "만날": 6056,
      "##ᆻ음을": 6057,
      "서류": 6058,
      "오피스텔": 6059,
      "실책": 6060,
      "##받을": 6061,
      "구체적으로": 6062,
      "##동계올림픽": 6063,
      "보여준다": 6064,
      "상주": 6065,
      "챔피언십": 6066,
      "분위기가": 6067,
      "얼": 6068,
      "가르치": 6069,
      "##바라": 6070,
      "꺾고": 6071,
      "들어간": 6072,
      "잇는": 6073,
      "증상": 6074,
      "##했는지": 6075,
      "마라": 6076,
      "늘려": 6077,
      "납": 6078,
      "인류": 6079,
      "열려": 6080,
      "Al": 6081,
      "겨냥": 6082,
      "미션": 6083,
      "성공한": 6084,
      "보복": 6085,
      "800": 6086,
      "수준이다": 6087,
      "##캠퍼스": 6088,
      "커뮤니티": 6089,
      "여론조사": 6090,
      "기조": 6091,
      "누구나": 6092,
      "##팬": 6093,
      "사용한다": 6094,
      "강도": 6095,
      "##58": 6096,
      "알렸다": 6097,
      "##ᆻ음에": 6098,
      "협약": 6099,
      "##결과": 6100,
      "회동": 6101,
      "##ess": 6102,
      "강연": 6103,
      "투자자": 6104,
      "82": 6105,
      "연관": 6106,
      "묻는": 6107,
      "자문": 6108,
      "어렵": 6109,
      "없었던": 6110,
      "방위": 6111,
      "철강": 6112,
      "셀": 6113,
      "국무총리": 6114,
      "재료": 6115,
      "파울": 6116,
      "다카": 6117,
      "총리가": 6118,
      "##ᄎ": 6119,
      "이명박": 6120,
      "세부": 6121,
      "계좌": 6122,
      "외모": 6123,
      "##유럽": 6124,
      "무렵": 6125,
      "삼아": 6126,
      "종로구": 6127,
      "이집트": 6128,
      "해제": 6129,
      "피고인": 6130,
      "미치는": 6131,
      "유나이티드": 6132,
      "누군가": 6133,
      "연금": 6134,
      "일이다": 6135,
      "안방": 6136,
      "체육": 6137,
      "적응": 6138,
      "가사": 6139,
      "탈당": 6140,
      "헝가리": 6141,
      "도움": 6142,
      "##li": 6143,
      "시작한다": 6144,
      "대처": 6145,
      "입지": 6146,
      "늘고": 6147,
      "기지": 6148,
      "청문회": 6149,
      "한국전력": 6150,
      "##버그": 6151,
      "부족한": 6152,
      "언급했다": 6153,
      "유학": 6154,
      "영광": 6155,
      "변동": 6156,
      "압수수색": 6157,
      "챔피언스리그": 6158,
      "승격": 6159,
      "즉각": 6160,
      "붙어": 6161,
      "##클리": 6162,
      "비교해": 6163,
      "모자": 6164,
      "셰프": 6165,
      "##ᆨ션": 6166,
      "광화문": 6167,
      "본회의": 6168,
      "근본": 6169,
      "유일하게": 6170,
      "동작": 6171,
      "##ill": 6172,
      "엠": 6173,
      "랩": 6174,
      "치열한": 6175,
      "배당": 6176,
      "충전": 6177,
      "돌아와": 6178,
      "##ᅣ": 6179,
      "기뻐": 6180,
      "뮤직비디오": 6181,
      "사무총장": 6182,
      "강세": 6183,
      "전날보다": 6184,
      "커지고": 6185,
      "##인들의": 6186,
      "##쉐": 6187,
      "##79": 6188,
      "일각에서": 6189,
      "닫": 6190,
      "##스러워": 6191,
      "투명": 6192,
      "멀리": 6193,
      "##83": 6194,
      "밖": 6195,
      "이대호": 6196,
      "소집": 6197,
      "집합": 6198,
      "UEFA": 6199,
      "시진핑": 6200,
      "티켓": 6201,
      "##극장": 6202,
      "##투자증권": 6203,
      "신중": 6204,
      "기온": 6205,
      "전망했다": 6206,
      "자율주행": 6207,
      "멈추": 6208,
      "페스티벌": 6209,
      "의뢰": 6210,
      "침해": 6211,
      "추경": 6212,
      "##EC": 6213,
      "##92": 6214,
      "단속": 6215,
      "##워크": 6216,
      "서명": 6217,
      "보존": 6218,
      "1950": 6219,
      "폐기": 6220,
      "##무라": 6221,
      "김병": 6222,
      "아이폰": 6223,
      "관람": 6224,
      "##께서": 6225,
      "떠났다": 6226,
      "##들었다": 6227,
      "##됐으며": 6228,
      "보컬": 6229,
      "창립": 6230,
      "뚫": 6231,
      "일찍": 6232,
      "초과": 6233,
      "달한다": 6234,
      "입원": 6235,
      "신세계": 6236,
      "필요성": 6237,
      "87": 6238,
      "그랜드": 6239,
      "콘셉트": 6240,
      "##高": 6241,
      "감독님": 6242,
      "메뉴": 6243,
      "##핵": 6244,
      "최신": 6245,
      "이끌고": 6246,
      "마이클": 6247,
      "와인": 6248,
      "주변에": 6249,
      "##ᆼ글": 6250,
      "##스트라": 6251,
      "빌려": 6252,
      "##스럽게": 6253,
      "진행하고": 6254,
      "컬러": 6255,
      "휴가": 6256,
      "##ᆻ으므로": 6257,
      "좌우": 6258,
      "홀로": 6259,
      "쌀": 6260,
      "성립": 6261,
      "셰": 6262,
      "의견이": 6263,
      "합동": 6264,
      "의혹이": 6265,
      "이어지는": 6266,
      "##괴": 6267,
      "##62": 6268,
      "이라크": 6269,
      "대법관": 6270,
      "현대캐피탈": 6271,
      "##87": 6272,
      "##대교": 6273,
      "업체들": 6274,
      "##자원": 6275,
      "엔터테인먼트": 6276,
      "추정된다": 6277,
      "##74": 6278,
      "추석": 6279,
      "##쇄": 6280,
      "살려": 6281,
      "요청했다": 6282,
      "집계": 6283,
      "부담이": 6284,
      "하원": 6285,
      "정규리그": 6286,
      "실천": 6287,
      "##59": 6288,
      "크로스": 6289,
      "구성되어": 6290,
      "파업": 6291,
      "de": 6292,
      "오리": 6293,
      "좋았다": 6294,
      "##에너지": 6295,
      "생성": 6296,
      "루이": 6297,
      "나쁜": 6298,
      "변수": 6299,
      "고전": 6300,
      "대통령에게": 6301,
      "뼈": 6302,
      "기상청": 6303,
      "에릭": 6304,
      "ᄋ": 6305,
      "##컴": 6306,
      "86": 6307,
      "오빠": 6308,
      "임상": 6309,
      "훼손": 6310,
      "재건축": 6311,
      "펼친": 6312,
      "##먼트": 6313,
      "김승": 6314,
      "건국": 6315,
      "##61": 6316,
      "제압": 6317,
      "##해지고": 6318,
      "##est": 6319,
      "재판에": 6320,
      "유행": 6321,
      "압도적": 6322,
      "지켰다": 6323,
      "모른다": 6324,
      "기다려": 6325,
      "##네스": 6326,
      "건립": 6327,
      "탓": 6328,
      "##테르": 6329,
      "##ak": 6330,
      "##ver": 6331,
      "##41": 6332,
      "한국어": 6333,
      "##DC": 6334,
      "##륜": 6335,
      "광역": 6336,
      "보여줬다": 6337,
      "##모델": 6338,
      "이끌": 6339,
      "여권": 6340,
      "##융합": 6341,
      "통증": 6342,
      "캐스팅": 6343,
      "갖추": 6344,
      "취재": 6345,
      "지위": 6346,
      "공원": 6347,
      "주간": 6348,
      "1945": 6349,
      "정무": 6350,
      "단장": 6351,
      "성추행": 6352,
      "조별리그": 6353,
      "##루스": 6354,
      "그럼에": 6355,
      "성장률": 6356,
      "##놓은": 6357,
      "##에게서": 6358,
      "CNN": 6359,
      "충북": 6360,
      "협업": 6361,
      "취약": 6362,
      "권고": 6363,
      "북한과": 6364,
      "06": 6365,
      "나오지": 6366,
      "믿고": 6367,
      "보태": 6368,
      "##구장": 6369,
      "최정": 6370,
      "패키지": 6371,
      "조명": 6372,
      "계정": 6373,
      "신곡": 6374,
      "작곡가": 6375,
      "지자체": 6376,
      "잠실구장에서": 6377,
      "700": 6378,
      "실망": 6379,
      "꾸며": 6380,
      "고유": 6381,
      "벌였다": 6382,
      "분명히": 6383,
      "양자": 6384,
      "마산": 6385,
      "상당한": 6386,
      "실패했다": 6387,
      "없지만": 6388,
      "동일한": 6389,
      "기업인": 6390,
      "종종": 6391,
      "화웨이": 6392,
      "##여명이": 6393,
      "합쳐": 6394,
      "설비": 6395,
      "설립된": 6396,
      "비록": 6397,
      "스페셜": 6398,
      "신용": 6399,
      "MY": 6400,
      "경매": 6401,
      "##ᆯ내체육관에서": 6402,
      "com": 6403,
      "따뜻한": 6404,
      "많지": 6405,
      "취재진": 6406,
      "케이블": 6407,
      "추적": 6408,
      "논리": 6409,
      "##칼": 6410,
      "거다": 6411,
      "##하라는": 6412,
      "넓은": 6413,
      "부실": 6414,
      "도시로": 6415,
      "집중력": 6416,
      "질병": 6417,
      "비중이": 6418,
      "활용한": 6419,
      "시청률": 6420,
      "운영하고": 6421,
      "스틸": 6422,
      "즉시": 6423,
      "아티스트": 6424,
      "적극적인": 6425,
      "선보인다": 6426,
      "포토": 6427,
      "국장": 6428,
      "입찰": 6429,
      "불린다": 6430,
      "지니": 6431,
      "##IA": 6432,
      "몸에": 6433,
      "삭제": 6434,
      "관료": 6435,
      "내지": 6436,
      "대변인": 6437,
      "토대": 6438,
      "맞지": 6439,
      "##校": 6440,
      "죽은": 6441,
      "보조": 6442,
      "주목받": 6443,
      "출간": 6444,
      "보며": 6445,
      "벌어지는": 6446,
      "##테이션": 6447,
      "##협약": 6448,
      "##플러스": 6449,
      "숨진": 6450,
      "##둔": 6451,
      "##ers": 6452,
      "캔": 6453,
      "이모": 6454,
      "##코스": 6455,
      "대로": 6456,
      "함수": 6457,
      "환호": 6458,
      "##IP": 6459,
      "아스": 6460,
      "예쁘": 6461,
      "핀란드": 6462,
      "독특한": 6463,
      "취급": 6464,
      "##ist": 6465,
      "아버지가": 6466,
      "클린턴": 6467,
      "##北": 6468,
      "##략": 6469,
      "VIP": 6470,
      "동시": 6471,
      "극본": 6472,
      "아기": 6473,
      "포스터": 6474,
      "정성": 6475,
      "생각하는": 6476,
      "##클래스": 6477,
      "반대로": 6478,
      "##DA": 6479,
      "##없": 6480,
      "느낄": 6481,
      "몰래": 6482,
      "##사령부": 6483,
      "수상했다": 6484,
      "##우드": 6485,
      "출신으로": 6486,
      "잃어": 6487,
      "다가오": 6488,
      "작품으로": 6489,
      "쏠리": 6490,
      "여객": 6491,
      "슛": 6492,
      "일본군": 6493,
      "요구하는": 6494,
      "##기념": 6495,
      "방송된다": 6496,
      "다음달": 6497,
      "라인업": 6498,
      "이어질": 6499,
      "행성": 6500,
      "신성": 6501,
      "##av": 6502,
      "JTBC": 6503,
      "꼽힌다": 6504,
      "##책임": 6505,
      "페이지": 6506,
      "신형": 6507,
      "기원": 6508,
      "##스톤": 6509,
      "부분은": 6510,
      "사후": 6511,
      "##시민": 6512,
      "대타": 6513,
      "킹": 6514,
      "간다": 6515,
      "막판": 6516,
      "##버려": 6517,
      "중부": 6518,
      "가져가": 6519,
      "##정치민주연합": 6520,
      "위즈": 6521,
      "완공": 6522,
      "##레이션": 6523,
      "아키": 6524,
      "개설": 6525,
      "거친": 6526,
      "##용품": 6527,
      "##AC": 6528,
      "편입": 6529,
      "##라운드에서": 6530,
      "사업자": 6531,
      "만든다": 6532,
      "컵": 6533,
      "아르헨티나": 6534,
      "##南": 6535,
      "않았던": 6536,
      "탑": 6537,
      "##me": 6538,
      "부모님": 6539,
      "##티스": 6540,
      "작동": 6541,
      "장난": 6542,
      "웨이": 6543,
      "집계됐다": 6544,
      "기록하고": 6545,
      "선생님": 6546,
      "유연": 6547,
      "성관계": 6548,
      "국제사회": 6549,
      "파주": 6550,
      "단순": 6551,
      "사이버": 6552,
      "전술": 6553,
      "수상자": 6554,
      "끌": 6555,
      "동료들": 6556,
      "강요": 6557,
      "규모로": 6558,
      "##조치": 6559,
      "측에": 6560,
      "변화가": 6561,
      "실종": 6562,
      "##ex": 6563,
      "청춘": 6564,
      "##랩": 6565,
      "중심의": 6566,
      "다음날": 6567,
      "울리": 6568,
      "문화재": 6569,
      "흡수": 6570,
      "생겼다": 6571,
      "영화이다": 6572,
      "##르크": 6573,
      "위안부": 6574,
      "겪고": 6575,
      "순서": 6576,
      "창단": 6577,
      "1500": 6578,
      "거짓말": 6579,
      "이것이": 6580,
      "##심에서": 6581,
      "흉": 6582,
      "퇴직": 6583,
      "기기": 6584,
      "매수": 6585,
      "않지만": 6586,
      "면적": 6587,
      "정면": 6588,
      "포토타임": 6589,
      "양측": 6590,
      "금메달을": 6591,
      "김선": 6592,
      "맞다": 6593,
      "라이프": 6594,
      "전무": 6595,
      "거대한": 6596,
      "##라이브": 6597,
      "빙": 6598,
      "신선": 6599,
      "##연전": 6600,
      "채워": 6601,
      "##최": 6602,
      "마사": 6603,
      "손해": 6604,
      "##률은": 6605,
      "있음을": 6606,
      "옆에": 6607,
      "합작": 6608,
      "다이노스": 6609,
      "선두타자": 6610,
      "미친": 6611,
      "핫": 6612,
      "고속도로": 6613,
      "고속": 6614,
      "##보면": 6615,
      "잇따라": 6616,
      "##언더파": 6617,
      "##ER": 6618,
      "##셋": 6619,
      "05": 6620,
      "생일": 6621,
      "긍정적인": 6622,
      "##블리": 6623,
      "마이크": 6624,
      "##韓": 6625,
      "CGV": 6626,
      "자식": 6627,
      "발견된": 6628,
      "내세워": 6629,
      "##광장": 6630,
      "폭탄": 6631,
      "##금액": 6632,
      "베를린": 6633,
      "Sh": 6634,
      "##앞": 6635,
      "가계": 6636,
      "93": 6637,
      "페이": 6638,
      "화이트": 6639,
      "##명에게": 6640,
      "국적": 6641,
      "##AT": 6642,
      "화장실": 6643,
      "롯데그룹": 6644,
      "깔": 6645,
      "기준금리": 6646,
      "현직": 6647,
      "##드라마": 6648,
      "부분에": 6649,
      "평택": 6650,
      "250": 6651,
      "시작됐다": 6652,
      "걸린": 6653,
      "##차량": 6654,
      "회의에서": 6655,
      "지난주": 6656,
      "소문": 6657,
      "발탁": 6658,
      "받았고": 6659,
      "##사이드": 6660,
      "경상북도": 6661,
      "민주주의": 6662,
      "영향으로": 6663,
      "선발로": 6664,
      "무관": 6665,
      "찍은": 6666,
      "이용자": 6667,
      "철저하": 6668,
      "확인했다": 6669,
      "사립": 6670,
      "면세점": 6671,
      "표면": 6672,
      "포르투갈": 6673,
      "반란": 6674,
      "파티": 6675,
      "담고": 6676,
      "정황": 6677,
      "왕조": 6678,
      "라이온즈": 6679,
      "위치해": 6680,
      "선보인": 6681,
      "크라": 6682,
      "국토교통부": 6683,
      "박스오피스": 6684,
      "이탈": 6685,
      "##겸": 6686,
      "아예": 6687,
      "반성": 6688,
      "돌리": 6689,
      "입사": 6690,
      "맡기": 6691,
      "##하느냐": 6692,
      "기획재정부": 6693,
      "컨디션": 6694,
      "곁": 6695,
      "별명": 6696,
      "범인": 6697,
      "##세이브": 6698,
      "##73": 6699,
      "유재석": 6700,
      "후배": 6701,
      "##ue": 6702,
      "금속": 6703,
      "등장했다": 6704,
      "터뜨리": 6705,
      "즐겨": 6706,
      "몽": 6707,
      "들려": 6708,
      "지역구": 6709,
      "편의점": 6710,
      "##획": 6711,
      "##드래곤": 6712,
      "찍어": 6713,
      "바이러스": 6714,
      "##왔던": 6715,
      "드림": 6716,
      "조선시대": 6717,
      "존중": 6718,
      "벌인": 6719,
      "개막전": 6720,
      "and": 6721,
      "##ou": 6722,
      "재능": 6723,
      "영웅": 6724,
      "조항": 6725,
      "고양시": 6726,
      "백화점": 6727,
      "아쉬워": 6728,
      "개시": 6729,
      "##만원으로": 6730,
      "없게": 6731,
      "등장하는": 6732,
      "누르": 6733,
      "인원": 6734,
      "베이스": 6735,
      "개성": 6736,
      "##년만에": 6737,
      "디자이너": 6738,
      "오랫동안": 6739,
      "또다시": 6740,
      "##ᆯ렌": 6741,
      "1983": 6742,
      "##하였는데": 6743,
      "지나가": 6744,
      "방법으로": 6745,
      "놀이": 6746,
      "경상남도": 6747,
      "붙잡": 6748,
      "##회담": 6749,
      "경찰청": 6750,
      "복원": 6751,
      "밀리": 6752,
      "어벤져스": 6753,
      "불구속": 6754,
      "확률": 6755,
      "##연합회": 6756,
      "시범": 6757,
      "아니면": 6758,
      "적합": 6759,
      "기대한다": 6760,
      "페르": 6761,
      "컴": 6762,
      "로버트": 6763,
      "격차": 6764,
      "외신": 6765,
      "몽골": 6766,
      "to": 6767,
      "갖춰": 6768,
      "정수": 6769,
      "놀": 6770,
      "##부분": 6771,
      "최소화": 6772,
      "아마존": 6773,
      "배상": 6774,
      "불렀다": 6775,
      "##켓": 6776,
      "130": 6777,
      "식민지": 6778,
      "코트": 6779,
      "시청자": 6780,
      "단축": 6781,
      "삼성화재": 6782,
      "아무러": 6783,
      "환경부": 6784,
      "도와주": 6785,
      "끝내기": 6786,
      "연료": 6787,
      "국무위원장": 6788,
      "병력": 6789,
      "들어와": 6790,
      "채우": 6791,
      "퓨": 6792,
      "사망했다": 6793,
      "용의자": 6794,
      "주장하는": 6795,
      "일원": 6796,
      "긍정적": 6797,
      "무한도전": 6798,
      "기각": 6799,
      "메리": 6800,
      "질환": 6801,
      "둘러싸": 6802,
      "곳으로": 6803,
      "##CO": 6804,
      "부서": 6805,
      "하계": 6806,
      "집으로": 6807,
      "완벽": 6808,
      "양상": 6809,
      "해산": 6810,
      "디스플레이": 6811,
      "1982": 6812,
      "서구": 6813,
      "●": 6814,
      "##효과": 6815,
      "##트릭": 6816,
      "방문한": 6817,
      "안산": 6818,
      "서브": 6819,
      "##교섭": 6820,
      "##IN": 6821,
      "뉴질랜드": 6822,
      "폼페이오": 6823,
      "줄어든": 6824,
      "##1000": 6825,
      "추측": 6826,
      "##그라": 6827,
      "흔히": 6828,
      "##되도록": 6829,
      "##여자": 6830,
      "예매": 6831,
      "경비": 6832,
      "##혜진": 6833,
      "톰": 6834,
      "진영": 6835,
      "뿐이다": 6836,
      "브렉시트": 6837,
      "삼성물산": 6838,
      "스트레스": 6839,
      "궤도": 6840,
      "계승": 6841,
      "갈라": 6842,
      "내놓은": 6843,
      "직장인": 6844,
      "그라운드": 6845,
      "달성했다": 6846,
      "국왕": 6847,
      "와서": 6848,
      "김희": 6849,
      "정확히": 6850,
      "쾌": 6851,
      "닭": 6852,
      "산다": 6853,
      "##치료": 6854,
      "일반적인": 6855,
      "유명하다": 6856,
      "하위": 6857,
      "박병호": 6858,
      "어울리": 6859,
      "심지어": 6860,
      "한국시리즈": 6861,
      "가야": 6862,
      "마리아": 6863,
      "얻을": 6864,
      "상속": 6865,
      "##했어요": 6866,
      "생겨": 6867,
      "시계": 6868,
      "해임": 6869,
      "##영화제": 6870,
      "전망된다": 6871,
      "이병헌": 6872,
      "##공개": 6873,
      "배달": 6874,
      "묶": 6875,
      "##TE": 6876,
      "##아메리카": 6877,
      "기업들이": 6878,
      "치러": 6879,
      "수비수": 6880,
      "근대": 6881,
      "동참": 6882,
      "##타자": 6883,
      "면접": 6884,
      "##처분": 6885,
      "##분께": 6886,
      "##혁신": 6887,
      "격려": 6888,
      "##ᆷ으로써": 6889,
      "##新": 6890,
      "##점슛": 6891,
      "대표와": 6892,
      "대표적": 6893,
      "##ᆻ을까": 6894,
      "갖는": 6895,
      "##미술관": 6896,
      "자연스럽게": 6897,
      "재배": 6898,
      "일요일": 6899,
      "##땅": 6900,
      "납치": 6901,
      "공주": 6902,
      "기자회견에서": 6903,
      "횡령": 6904,
      "##푸드": 6905,
      "목사": 6906,
      "명확하": 6907,
      "참여하는": 6908,
      "##국제영화제": 6909,
      "펼쳐진": 6910,
      "손상": 6911,
      "호평": 6912,
      "퍼포먼스": 6913,
      "상금": 6914,
      "##비율": 6915,
      "##ity": 6916,
      "다양하": 6917,
      "동양": 6918,
      "멜로": 6919,
      "##오르": 6920,
      "지출": 6921,
      "명시": 6922,
      "##道": 6923,
      "##93": 6924,
      "문구": 6925,
      "##럭": 6926,
      "무실점으로": 6927,
      "스카이": 6928,
      "94": 6929,
      "##팀장": 6930,
      "철회": 6931,
      "##해질": 6932,
      "천연": 6933,
      "##탐": 6934,
      "알려": 6935,
      "라면서": 6936,
      "투쟁": 6937,
      "##TS": 6938,
      "##년대에": 6939,
      "##무대": 6940,
      "##城": 6941,
      "전용면적": 6942,
      "키움": 6943,
      "사용된다": 6944,
      "쪽으로": 6945,
      "##if": 6946,
      "##이므로": 6947,
      "##AN": 6948,
      "국산": 6949,
      "##간에": 6950,
      "비전": 6951,
      "##개월간": 6952,
      "윤리": 6953,
      "##『": 6954,
      "둔화": 6955,
      "##스틱": 6956,
      "83": 6957,
      "사회주의": 6958,
      "무상": 6959,
      "##시리즈": 6960,
      "개장": 6961,
      "선정됐다": 6962,
      "An": 6963,
      "##상황": 6964,
      "##경기장에서": 6965,
      "털어놨다": 6966,
      "취하": 6967,
      "가져오": 6968,
      "한층": 6969,
      "##했어": 6970,
      "배경으로": 6971,
      "서버": 6972,
      "요건": 6973,
      "흘리": 6974,
      "높았다": 6975,
      "기후": 6976,
      "GDP": 6977,
      "##버렸다": 6978,
      "트렌드": 6979,
      "소식이": 6980,
      "조사에서": 6981,
      "않을까": 6982,
      "본래": 6983,
      "묻자": 6984,
      "바른미래당": 6985,
      "선보여": 6986,
      "##81": 6987,
      "박물관": 6988,
      "확신": 6989,
      "선언했다": 6990,
      "##ᄑ": 6991,
      "위상": 6992,
      "불가피": 6993,
      "갖추고": 6994,
      "##ᄒ": 6995,
      "##줘야": 6996,
      "에는": 6997,
      "재미있": 6998,
      "분포": 6999,
      "관할": 7000,
      "주류": 7001,
      "VR": 7002,
      "자택": 7003,
      "##원장": 7004,
      "기자들과": 7005,
      "출근": 7006,
      "가상화폐": 7007,
      "밖으로": 7008,
      "전라남도": 7009,
      "떨어지는": 7010,
      "FTA": 7011,
      "노후": 7012,
      "대안": 7013,
      "품목": 7014,
      "##어스": 7015,
      "공식적으로": 7016,
      "##할까": 7017,
      "##ce": 7018,
      "로맨스": 7019,
      "의하면": 7020,
      "식으로": 7021,
      "브라운": 7022,
      "역전승": 7023,
      "##ard": 7024,
      "동네": 7025,
      "이루어진": 7026,
      "합성": 7027,
      "도달": 7028,
      "현안": 7029,
      "##故": 7030,
      "디젤": 7031,
      "말까지": 7032,
      "마스터": 7033,
      "리스크": 7034,
      "##준다": 7035,
      "논쟁": 7036,
      "##to": 7037,
      "부임": 7038,
      "##노조": 7039,
      "양산": 7040,
      "출신인": 7041,
      "사전에": 7042,
      "조달": 7043,
      "##na": 7044,
      "단순히": 7045,
      "체결했다": 7046,
      "가짜": 7047,
      "즉위": 7048,
      "이어지고": 7049,
      "엑스": 7050,
      "대수": 7051,
      "서양": 7052,
      "잭슨": 7053,
      "높여": 7054,
      "규칙": 7055,
      "발레": 7056,
      "우수한": 7057,
      "헨리": 7058,
      "아니고": 7059,
      "엑소": 7060,
      "여사": 7061,
      "면담": 7062,
      "호수": 7063,
      "##현대": 7064,
      "육상": 7065,
      "##세계": 7066,
      "뒤늦게": 7067,
      "프로듀서": 7068,
      "벌써": 7069,
      "항공사": 7070,
      "불과하다": 7071,
      "이겼다": 7072,
      "김포": 7073,
      "내보내": 7074,
      "공시했다": 7075,
      "##골프": 7076,
      "마련했다": 7077,
      "##ᆯ랜드": 7078,
      "##티아": 7079,
      "설치된": 7080,
      "일치": 7081,
      "내세우": 7082,
      "생각하고": 7083,
      "해킹": 7084,
      "크고": 7085,
      "##MI": 7086,
      "##효율": 7087,
      "여배우": 7088,
      "내수": 7089,
      "측면에서": 7090,
      "OK": 7091,
      "여겨": 7092,
      "##렛": 7093,
      "날려": 7094,
      "추모": 7095,
      "트랙": 7096,
      "MVP": 7097,
      "국무부": 7098,
      "##궐": 7099,
      "시카고": 7100,
      "##셜": 7101,
      "##채널": 7102,
      "유죄": 7103,
      "##ti": 7104,
      "##경쟁": 7105,
      "냉장고": 7106,
      "두번째": 7107,
      "운항": 7108,
      "발생하는": 7109,
      "공백": 7110,
      "92": 7111,
      "##회까지": 7112,
      "항목": 7113,
      "끊어": 7114,
      "이뤄졌다": 7115,
      "##pe": 7116,
      "뻔": 7117,
      "데이비드": 7118,
      "강렬한": 7119,
      "벨기에": 7120,
      "몫": 7121,
      "비트": 7122,
      "##투스": 7123,
      "유형": 7124,
      "갚": 7125,
      "견해": 7126,
      "채무": 7127,
      "정규직": 7128,
      "사임": 7129,
      "##궈": 7130,
      "사랑하는": 7131,
      "텍사스": 7132,
      "바른정당": 7133,
      "갖게": 7134,
      "경위": 7135,
      "일으켜": 7136,
      "당사자": 7137,
      "마블": 7138,
      "죽어": 7139,
      "인사들": 7140,
      "##사키": 7141,
      "확실히": 7142,
      "국토부": 7143,
      "##년째": 7144,
      "검은": 7145,
      "타이틀곡": 7146,
      "##톡": 7147,
      "철거": 7148,
      "그레이": 7149,
      "학술": 7150,
      "양식": 7151,
      "##ate": 7152,
      "비서실장": 7153,
      "마포구": 7154,
      "##블로": 7155,
      "꼽았다": 7156,
      "침체": 7157,
      "꿈꾸": 7158,
      "석탄": 7159,
      "카르": 7160,
      "부르는": 7161,
      "집행유예": 7162,
      "끊임없": 7163,
      "학부모": 7164,
      "항소심": 7165,
      "질주": 7166,
      "용기": 7167,
      "##해줘": 7168,
      "##마르": 7169,
      "이어져": 7170,
      "과학기술": 7171,
      "크로": 7172,
      "##생산": 7173,
      "나쁘": 7174,
      "##ub": 7175,
      "에피소드": 7176,
      "마드리드": 7177,
      "크리스마스": 7178,
      "최우수": 7179,
      "학문": 7180,
      "##ᆻ더라": 7181,
      "일으킨": 7182,
      "알려주": 7183,
      "돕는": 7184,
      "##Z": 7185,
      "##IS": 7186,
      "##워드": 7187,
      "##軍": 7188,
      "메모리": 7189,
      "탓에": 7190,
      "##TI": 7191,
      "제안했다": 7192,
      "토트넘": 7193,
      "매니저": 7194,
      "무조건": 7195,
      "편리하": 7196,
      "표명": 7197,
      "발표된": 7198,
      "선제": 7199,
      "1979": 7200,
      "##되었던": 7201,
      "경찰관": 7202,
      "측근": 7203,
      "무선": 7204,
      "야권": 7205,
      "진주": 7206,
      "칼럼": 7207,
      "용산": 7208,
      "토크": 7209,
      "1981": 7210,
      "##마트": 7211,
      "##ud": 7212,
      "사연": 7213,
      "벌이고": 7214,
      "아니어": 7215,
      "승용차": 7216,
      "사람에게": 7217,
      "##카운트": 7218,
      "##ec": 7219,
      "의정부": 7220,
      "수익률": 7221,
      "명품": 7222,
      "정원": 7223,
      "##청장": 7224,
      "트레이드": 7225,
      "##되지만": 7226,
      "##베스트": 7227,
      "중순": 7228,
      "사람들에게": 7229,
      "Me": 7230,
      "미칠": 7231,
      "신조": 7232,
      "남긴": 7233,
      "편안하": 7234,
      "어떠한": 7235,
      "얻는": 7236,
      "사용되는": 7237,
      "DJ": 7238,
      "일산": 7239,
      "시속": 7240,
      "교차": 7241,
      "던졌다": 7242,
      "CCTV": 7243,
      "연세대": 7244,
      "##박물관": 7245,
      "앓": 7246,
      "##ᄆ": 7247,
      "##ment": 7248,
      "##강전": 7249,
      "가입자": 7250,
      "게다": 7251,
      "##ES": 7252,
      "##질환": 7253,
      "보건복지부": 7254,
      "위대한": 7255,
      "##데스": 7256,
      "저렴하": 7257,
      "##pr": 7258,
      "시청": 7259,
      "##og": 7260,
      "리얼": 7261,
      "준공": 7262,
      "뚜렷": 7263,
      "성매매": 7264,
      "여왕": 7265,
      "과장": 7266,
      "엄격": 7267,
      "아트": 7268,
      "청소": 7269,
      "##up": 7270,
      "미드필더": 7271,
      "##女": 7272,
      "##노동조합": 7273,
      "테이블": 7274,
      "다르게": 7275,
      "구성원": 7276,
      "합리적": 7277,
      "신제품": 7278,
      "110": 7279,
      "접속": 7280,
      "무대에서": 7281,
      "문건": 7282,
      "춘천": 7283,
      "예정인": 7284,
      "씨와": 7285,
      "바뀐": 7286,
      "진행되는": 7287,
      "병역": 7288,
      "시작하였다": 7289,
      "힙합": 7290,
      "서초구": 7291,
      "클라우드": 7292,
      "견제": 7293,
      "##야말로": 7294,
      "방북": 7295,
      "쫓": 7296,
      "##法": 7297,
      "마침내": 7298,
      "쓰레기": 7299,
      "근로": 7300,
      "뛰어나": 7301,
      "중심지": 7302,
      "##바르": 7303,
      "유치원": 7304,
      "되찾": 7305,
      "준우승": 7306,
      "다짐": 7307,
      "접전": 7308,
      "믿음": 7309,
      "생애": 7310,
      "##제약": 7311,
      "공세": 7312,
      "개최된": 7313,
      "##iv": 7314,
      "프라이": 7315,
      "배정": 7316,
      "##축제": 7317,
      "북측": 7318,
      "벌여": 7319,
      "물류": 7320,
      "좌전": 7321,
      "##bsp": 7322,
      "대우조선해양": 7323,
      "하차": 7324,
      "통일부": 7325,
      "비공개": 7326,
      "##ev": 7327,
      "140": 7328,
      "아이템": 7329,
      "소셜미디어": 7330,
      "어려울": 7331,
      "##ci": 7332,
      "선발투수": 7333,
      "팔아": 7334,
      "##인민공화국": 7335,
      "미안하": 7336,
      "차종": 7337,
      "##스토어": 7338,
      "##아프리카": 7339,
      "##판매": 7340,
      "알바": 7341,
      "##운영": 7342,
      "버티": 7343,
      "제출한": 7344,
      "김일성": 7345,
      "www": 7346,
      "##海": 7347,
      "특화": 7348,
      "공산당": 7349,
      "##혁명": 7350,
      "##필름": 7351,
      "반격": 7352,
      "쿠바": 7353,
      "가까워": 7354,
      "차세대": 7355,
      "##프로그램": 7356,
      "어른": 7357,
      "공익": 7358,
      "최고경영자": 7359,
      "현대중공업": 7360,
      "모르겠다": 7361,
      "공중": 7362,
      "여파": 7363,
      "힘들다": 7364,
      "흑인": 7365,
      "제시했다": 7366,
      "보여주고": 7367,
      "귀족": 7368,
      "배려": 7369,
      "사우디": 7370,
      "급여": 7371,
      "연산": 7372,
      "##스타즈": 7373,
      "##궤": 7374,
      "복면가왕": 7375,
      "출동": 7376,
      "아산": 7377,
      "좋게": 7378,
      "발목": 7379,
      "##센트": 7380,
      "아니지만": 7381,
      "등판해": 7382,
      "예수": 7383,
      "##義": 7384,
      "##사람": 7385,
      "##들로부터": 7386,
      "##해준다": 7387,
      "정상화": 7388,
      "배포": 7389,
      "인용해": 7390,
      "##싸움": 7391,
      "평범하": 7392,
      "아나운서": 7393,
      "성폭력": 7394,
      "피아노": 7395,
      "조금씩": 7396,
      "남다르": 7397,
      "내달": 7398,
      "바뀌었다": 7399,
      "보면서": 7400,
      "것보다": 7401,
      "설레": 7402,
      "##시쯤": 7403,
      "##ON": 7404,
      "고객들": 7405,
      "우리카드": 7406,
      "친박": 7407,
      "숨겨": 7408,
      "WSJ": 7409,
      "류현진": 7410,
      "외곽": 7411,
      "끼치": 7412,
      "경유": 7413,
      "별다르": 7414,
      "##DS": 7415,
      "오스트레일리아": 7416,
      "넣었다": 7417,
      "##AF": 7418,
      "제공하고": 7419,
      "포장": 7420,
      "한글": 7421,
      "충족": 7422,
      "##닥": 7423,
      "등극": 7424,
      "가까": 7425,
      "불거지": 7426,
      "해당한다": 7427,
      "전통적": 7428,
      "세계적으로": 7429,
      "선생": 7430,
      "드론": 7431,
      "동계": 7432,
      "##事": 7433,
      "노르웨이": 7434,
      "아시안컵": 7435,
      "양현종": 7436,
      "알파": 7437,
      "1978": 7438,
      "현황": 7439,
      "급등": 7440,
      "얻고": 7441,
      "뷰티": 7442,
      "##셔서": 7443,
      "레오": 7444,
      "무력": 7445,
      "효율적": 7446,
      "금품": 7447,
      "솔루션": 7448,
      "우크라이나": 7449,
      "##公": 7450,
      "##ᆼ렬": 7451,
      "##콩": 7452,
      "1974": 7453,
      "##노스": 7454,
      "달렸다": 7455,
      "##파운드": 7456,
      "##he": 7457,
      "##끔": 7458,
      "적절": 7459,
      "맞춘": 7460,
      "##ip": 7461,
      "있느냐": 7462,
      "생물": 7463,
      "그러다": 7464,
      "구원": 7465,
      "##중공업": 7466,
      "트와이스": 7467,
      "##뤼": 7468,
      "예외": 7469,
      "완벽하게": 7470,
      "회원국": 7471,
      "불참": 7472,
      "색깔": 7473,
      "오토": 7474,
      "일방적": 7475,
      "##냥": 7476,
      "벤치": 7477,
      "담아": 7478,
      "한국은행": 7479,
      "##저우": 7480,
      "##미디어": 7481,
      "##ma": 7482,
      "높게": 7483,
      "당분간": 7484,
      "보험료": 7485,
      "사운드": 7486,
      "연구개발": 7487,
      "아무리": 7488,
      "발생할": 7489,
      "참전": 7490,
      "단행": 7491,
      "빅데이터": 7492,
      "##뽀": 7493,
      "근육": 7494,
      "토요일": 7495,
      "조율": 7496,
      "입건": 7497,
      "밝혀졌다": 7498,
      "열릴": 7499,
      "##계기가": 7500,
      "##올라": 7501,
      "##방안": 7502,
      "조현": 7503,
      "위안화": 7504,
      "면모": 7505,
      "폴리": 7506,
      "수차례": 7507,
      "났다": 7508,
      "이어가고": 7509,
      "##AM": 7510,
      "갖는다": 7511,
      "입대": 7512,
      "가맹점": 7513,
      "유승민": 7514,
      "##넥": 7515,
      "동대문": 7516,
      "첫날": 7517,
      "풍경": 7518,
      "사망자": 7519,
      "벌어졌다": 7520,
      "##였으며": 7521,
      "김현수": 7522,
      "##모씨": 7523,
      "국가들": 7524,
      "밝은": 7525,
      "##∼20": 7526,
      "##박쥐": 7527,
      "융": 7528,
      "##블레": 7529,
      "##캠프": 7530,
      "작사": 7531,
      "배워": 7532,
      "위치하고": 7533,
      "대법원장": 7534,
      "모스크바": 7535,
      "당부했다": 7536,
      "CD": 7537,
      "주차장": 7538,
      "##챔피언": 7539,
      "게재": 7540,
      "김광": 7541,
      "맞게": 7542,
      "##ld": 7543,
      "합의했다": 7544,
      "빨간": 7545,
      "연준": 7546,
      "재계": 7547,
      "복무": 7548,
      "골밑": 7549,
      "핵무기": 7550,
      "겉": 7551,
      "##됐을": 7552,
      "CAR": 7553,
      "늦어": 7554,
      "창작": 7555,
      "##농구": 7556,
      "편이다": 7557,
      "방면": 7558,
      "##펠": 7559,
      "Le": 7560,
      "##무늬": 7561,
      "입구": 7562,
      "선수권": 7563,
      "사내": 7564,
      "승차": 7565,
      "원자력": 7566,
      "##ber": 7567,
      "켈리": 7568,
      "연예": 7569,
      "갑작스러": 7570,
      "공판": 7571,
      "##지방법원": 7572,
      "후임": 7573,
      "당내": 7574,
      "##펑": 7575,
      "레스토랑": 7576,
      "조선민주주의": 7577,
      "교통사고": 7578,
      "싫어": 7579,
      "김무성": 7580,
      "##되었는데": 7581,
      "##직원": 7582,
      "추진하고": 7583,
      "##박람회": 7584,
      "##커스": 7585,
      "외치": 7586,
      "못하게": 7587,
      "##공화국": 7588,
      "참가자": 7589,
      "##사이트": 7590,
      "##홈쇼핑": 7591,
      "##보고서": 7592,
      "우정": 7593,
      "더민주": 7594,
      "##뇨": 7595,
      "그럴": 7596,
      "서민": 7597,
      "침입": 7598,
      "넘겼다": 7599,
      "로켓": 7600,
      "##지현": 7601,
      "약세": 7602,
      "1972": 7603,
      "지속되": 7604,
      "하락한": 7605,
      "##OP": 7606,
      "##디스크": 7607,
      "가담": 7608,
      "##오픈": 7609,
      "정밀": 7610,
      "폭스": 7611,
      "##법원": 7612,
      "금메달": 7613,
      "보이며": 7614,
      "오디션": 7615,
      "욕심": 7616,
      "여건": 7617,
      "뜻한다": 7618,
      "분열": 7619,
      "총선에서": 7620,
      "원정경기": 7621,
      "##CA": 7622,
      "명성": 7623,
      "##MC": 7624,
      "반대하는": 7625,
      "마이크로": 7626,
      "손해배상": 7627,
      "맞춤형": 7628,
      "중견수": 7629,
      "풍부한": 7630,
      "익숙": 7631,
      "제휴": 7632,
      "게재했다": 7633,
      "행복한": 7634,
      "조합원": 7635,
      "엔트리": 7636,
      "경제학": 7637,
      "법칙": 7638,
      "든다": 7639,
      "전투기": 7640,
      "하더라": 7641,
      "끝났다": 7642,
      "##이었는데": 7643,
      "감추": 7644,
      "도박": 7645,
      "##ang": 7646,
      "##ant": 7647,
      "신작": 7648,
      "분당": 7649,
      "등장한": 7650,
      "유지하고": 7651,
      "흔적": 7652,
      "해방": 7653,
      "##ly": 7654,
      "짓고": 7655,
      "클로": 7656,
      "폴크스바겐": 7657,
      "풀이된다": 7658,
      "여섯": 7659,
      "플레이어": 7660,
      "1975": 7661,
      "응용": 7662,
      "충청남도": 7663,
      "보험사": 7664,
      "전투에서": 7665,
      "중요성": 7666,
      "##방식": 7667,
      "열기": 7668,
      "골드": 7669,
      "상당수": 7670,
      "주었다": 7671,
      "유족": 7672,
      "쇼핑몰": 7673,
      "이끌어내": 7674,
      "학위": 7675,
      "할아버지": 7676,
      "입었다": 7677,
      "탈북": 7678,
      "1973": 7679,
      "졸업하고": 7680,
      "정의당": 7681,
      "##바퀴": 7682,
      "##해줄": 7683,
      "연루": 7684,
      "궁금증": 7685,
      "##자본": 7686,
      "유럽연합": 7687,
      "육아": 7688,
      "경기력": 7689,
      "주목된다": 7690,
      "맹활약": 7691,
      "선제골": 7692,
      "진전": 7693,
      "태양광": 7694,
      "없기": 7695,
      "동아시아": 7696,
      "영양": 7697,
      "도약": 7698,
      "입력": 7699,
      "비트코인": 7700,
      "모으고": 7701,
      "쓰인다": 7702,
      "믿어": 7703,
      "크루즈": 7704,
      "진행할": 7705,
      "충분한": 7706,
      "##주간": 7707,
      "납품": 7708,
      "창설": 7709,
      "청탁": 7710,
      "쓰지": 7711,
      "국무장관": 7712,
      "##쭈": 7713,
      "스티븐": 7714,
      "카타르": 7715,
      "후손": 7716,
      "질량": 7717,
      "보여준": 7718,
      "높이고": 7719,
      "열대": 7720,
      "##킴": 7721,
      "여겨지": 7722,
      "##공연": 7723,
      "UAE": 7724,
      "사용하여": 7725,
      "##테스": 7726,
      "이마트": 7727,
      "이용하여": 7728,
      "시사회": 7729,
      "##ran": 7730,
      "데이트": 7731,
      "혼인": 7732,
      "이곳에서": 7733,
      "인용": 7734,
      "##ᆱ": 7735,
      "##화인민공화국": 7736,
      "메달": 7737,
      "딴": 7738,
      "발견됐다": 7739,
      "경호": 7740,
      "랭킹": 7741,
      "리더십": 7742,
      "광복": 7743,
      "아이콘": 7744,
      "##ect": 7745,
      "기대된다": 7746,
      "전달했다": 7747,
      "거래소": 7748,
      "부패": 7749,
      "백종원": 7750,
      "다저스": 7751,
      "1930": 7752,
      "##man": 7753,
      "노벨": 7754,
      "당원": 7755,
      "철저ᄒ": 7756,
      "페이스": 7757,
      "##팡": 7758,
      "##방향": 7759,
      "##받으": 7760,
      "개척": 7761,
      "##川": 7762,
      "##해주고": 7763,
      "재생": 7764,
      "잠정": 7765,
      "푸틴": 7766,
      "##di": 7767,
      "내외": 7768,
      "설치되어": 7769,
      "##q": 7770,
      "##스타디움에서": 7771,
      "##ain": 7772,
      "여성들": 7773,
      "긴장감": 7774,
      "##ᅤ": 7775,
      "##2⁄3": 7776,
      "끌어올리": 7777,
      "코엑스": 7778,
      "##하이닉스": 7779,
      "선수들에게": 7780,
      "##ho": 7781,
      "목포": 7782,
      "사냥": 7783,
      "##담당": 7784,
      "##ET": 7785,
      "##되었지만": 7786,
      "야외": 7787,
      "##ID": 7788,
      "인천공항": 7789,
      "이뤄져": 7790,
      "대사관": 7791,
      "석방": 7792,
      "난다": 7793,
      "감사하다": 7794,
      "철도역": 7795,
      "검토하고": 7796,
      "발효": 7797,
      "BBC": 7798,
      "마쓰": 7799,
      "숨기": 7800,
      "해커": 7801,
      "터뜨렸다": 7802,
      "##1⁄3": 7803,
      "살아남": 7804,
      "끝으로": 7805,
      "확정했다": 7806,
      "##코프": 7807,
      "판문점": 7808,
      "단순한": 7809,
      "kr": 7810,
      "실업": 7811,
      "닿": 7812,
      "예상치": 7813,
      "전략적": 7814,
      "##MB": 7815,
      "오키나와": 7816,
      "##홀딩스": 7817,
      "유포": 7818,
      "현대건설": 7819,
      "##캡": 7820,
      "##매체": 7821,
      "##io": 7822,
      "탔다": 7823,
      "그날": 7824,
      "호응": 7825,
      "1948": 7826,
      "쏟아내": 7827,
      "눈치": 7828,
      "탐사": 7829,
      "넣고": 7830,
      "##민주당": 7831,
      "이례적": 7832,
      "음식점": 7833,
      "1976": 7834,
      "##오카": 7835,
      "##pl": 7836,
      "현대모비스": 7837,
      "워낙": 7838,
      "IMF": 7839,
      "이승엽": 7840,
      "솔직하": 7841,
      "1971": 7842,
      "##유플러스": 7843,
      "아마추어": 7844,
      "##벨트": 7845,
      "빅뱅": 7846,
      "하노이": 7847,
      "터널": 7848,
      "지붕": 7849,
      "지불": 7850,
      "싶지": 7851,
      "전시회": 7852,
      "##前": 7853,
      "휴대폰": 7854,
      "선진국": 7855,
      "살아나": 7856,
      "빠르": 7857,
      "시범경기": 7858,
      "##중심": 7859,
      "##ME": 7860,
      "패널": 7861,
      "사찰": 7862,
      "천황": 7863,
      "스피드": 7864,
      "이메일": 7865,
      "스파이": 7866,
      "패턴": 7867,
      "터져": 7868,
      "꼬리": 7869,
      "이끈": 7870,
      "본명": 7871,
      "뛰어넘": 7872,
      "넣은": 7873,
      "모르게": 7874,
      "##해준": 7875,
      "맺고": 7876,
      "##one": 7877,
      "주위": 7878,
      "자카르타": 7879,
      "상향": 7880,
      "어린이집": 7881,
      "여신": 7882,
      "##있게": 7883,
      "조만간": 7884,
      "아랍": 7885,
      "발급": 7886,
      "손가락": 7887,
      "끈다": 7888,
      "분들이": 7889,
      "사라진": 7890,
      "##평화": 7891,
      "##EA": 7892,
      "##正": 7893,
      "빌보드": 7894,
      "송파구": 7895,
      "사흘": 7896,
      "허락": 7897,
      "##콘서트": 7898,
      "권위": 7899,
      "것인가": 7900,
      "존경": 7901,
      "챙겨": 7902,
      "##해줬다": 7903,
      "나타냈다": 7904,
      "##TA": 7905,
      "##長": 7906,
      "의약품": 7907,
      "우익수": 7908,
      "타석에서": 7909,
      "##ov": 7910,
      "재판장": 7911,
      "##뒤": 7912,
      "##동맹": 7913,
      "있었기": 7914,
      "숙소": 7915,
      "민정수석": 7916,
      "금융감독원": 7917,
      "좌석": 7918,
      "노력하겠다": 7919,
      "따내": 7920,
      "##ᄂ": 7921,
      "담았다": 7922,
      "침묵": 7923,
      "상륙": 7924,
      "선포": 7925,
      "##민족": 7926,
      "산업혁명": 7927,
      "이동통신": 7928,
      "박씨": 7929,
      "남쪽으로": 7930,
      "담겼다": 7931,
      "오랜만에": 7932,
      "이르면": 7933,
      "감탄": 7934,
      "적절한": 7935,
      "##맘": 7936,
      "##ast": 7937,
      "잠수함": 7938,
      "던진": 7939,
      "##플러": 7940,
      "타자들": 7941,
      "분량": 7942,
      "##PC": 7943,
      "##‧": 7944,
      "##寺": 7945,
      "##氏": 7946,
      "##어시스트": 7947,
      "코믹": 7948,
      "##손해보험": 7949,
      "평가전": 7950,
      "##CE": 7951,
      "대항": 7952,
      "발간": 7953,
      "몰랐다": 7954,
      "먼지": 7955,
      "바깥": 7956,
      "오페라": 7957,
      "알아보": 7958,
      "참모": 7959,
      "독립운동": 7960,
      "포함됐다": 7961,
      "1962": 7962,
      "1977": 7963,
      "##ong": 7964,
      "쪼": 7965,
      "자신에게": 7966,
      "좌익수": 7967,
      "떠올리": 7968,
      "챌린지": 7969,
      "촉진": 7970,
      "##ng": 7971,
      "YG": 7972,
      "##특위": 7973,
      "나카": 7974,
      "수확": 7975,
      "Ro": 7976,
      "확실한": 7977,
      "##띠": 7978,
      "존재감": 7979,
      "생겨나": 7980,
      "촛불": 7981,
      "운송": 7982,
      "##맥스": 7983,
      "##뷔": 7984,
      "##뮤직": 7985,
      "음주운전": 7986,
      "잡히": 7987,
      "당첨": 7988,
      "##書": 7989,
      "동력": 7990,
      "느껴지": 7991,
      "##바이오": 7992,
      "숨지": 7993,
      "어릴": 7994,
      "##PA": 7995,
      "##ack": 7996,
      "생태계": 7997,
      "앞장서": 7998,
      "있었으며": 7999,
      "삼각": 8000,
      "##멜": 8001,
      "##ob": 8002,
      "##ff": 8003,
      "밝혀지": 8004,
      "##SI": 8005,
      "##기업은행": 8006,
      "확산되": 8007,
      "극대화": 8008,
      "풀리": 8009,
      "##누스": 8010,
      "헤드": 8011,
      "청원": 8012,
      "몸매": 8013,
      "맺었다": 8014,
      "이뤄질": 8015,
      "들어온": 8016,
      "재난": 8017,
      "충청": 8018,
      "체크": 8019,
      "비정규직": 8020,
      "##HD": 8021,
      "뭔가": 8022,
      "많고": 8023,
      "백제": 8024,
      "시달리": 8025,
      "공방": 8026,
      "본질": 8027,
      "##하듯": 8028,
      "##ian": 8029,
      "걸렸다": 8030,
      "김대중": 8031,
      "무승부": 8032,
      "트로피": 8033,
      "##FM": 8034,
      "실전": 8035,
      "1963": 8036,
      "노예": 8037,
      "돌파했다": 8038,
      "포스트시즌": 8039,
      "같았다": 8040,
      "리콜": 8041,
      "Pro": 8042,
      "재임": 8043,
      "음료": 8044,
      "Ar": 8045,
      "##元": 8046,
      "##ight": 8047,
      "##딸": 8048,
      "블라": 8049,
      "흉기": 8050,
      "##und": 8051,
      "성실": 8052,
      "억제": 8053,
      "추산": 8054,
      "면제": 8055,
      "내다봤다": 8056,
      "선보이는": 8057,
      "억울": 8058,
      "축구대표팀": 8059,
      "막말": 8060,
      "독점": 8061,
      "버디": 8062,
      "##對": 8063,
      "잠실야구장": 8064,
      "닥터": 8065,
      "금융당국": 8066,
      "늘어날": 8067,
      "증권사": 8068,
      "따냈다": 8069,
      "심사위원": 8070,
      "##승째": 8071,
      "해운대": 8072,
      "##놀이": 8073,
      "인텔": 8074,
      "1968": 8075,
      "##천군": 8076,
      "빌리": 8077,
      "마스크": 8078,
      "증가율": 8079,
      "컨트롤": 8080,
      "##쇼핑": 8081,
      "쏘아": 8082,
      "부정적인": 8083,
      "유쾌하": 8084,
      "묶어": 8085,
      "연평균": 8086,
      "방출": 8087,
      "주축": 8088,
      "대가로": 8089,
      "##분간": 8090,
      "녹색": 8091,
      "1964": 8092,
      "올스타전": 8093,
      "유효": 8094,
      "##RS": 8095,
      "##GB": 8096,
      "사격": 8097,
      "쐐기": 8098,
      "개그맨": 8099,
      "##연속": 8100,
      "달라진": 8101,
      "초점을": 8102,
      "특혜": 8103,
      "숙박": 8104,
      "급락": 8105,
      "##AD": 8106,
      "##화체육관광부": 8107,
      "국가주석": 8108,
      "주니어": 8109,
      "상대방": 8110,
      "##넘": 8111,
      "대다수": 8112,
      "##ᆲ": 8113,
      "##득점으로": 8114,
      "횡": 8115,
      "##TC": 8116,
      "박명수": 8117,
      "남기고": 8118,
      "올리며": 8119,
      "잡아내": 8120,
      "##IT": 8121,
      "##Wh": 8122,
      "일어났다": 8123,
      "레드카펫": 8124,
      "##明": 8125,
      "노하우": 8126,
      "섭취": 8127,
      "코스피지수": 8128,
      "녹화": 8129,
      "DNA": 8130,
      "있었으나": 8131,
      "##RO": 8132,
      "##ae": 8133,
      "##일종이다": 8134,
      "##하러": 8135,
      "##朴": 8136,
      "단백질": 8137,
      "꼽히는": 8138,
      "찾아내": 8139,
      "##졌으며": 8140,
      "담장": 8141,
      "권유": 8142,
      "독재": 8143,
      "##졌지만": 8144,
      "모색": 8145,
      "뜨겁": 8146,
      "판타지": 8147,
      "##겠습니다": 8148,
      "문장": 8149,
      "전체적으로": 8150,
      "어렵게": 8151,
      "흑자": 8152,
      "무덤": 8153,
      "재발": 8154,
      "##작업": 8155,
      "동행": 8156,
      "겪어": 8157,
      "##이었으며": 8158,
      "1969": 8159,
      "벤츠": 8160,
      "##겹": 8161,
      "군사적": 8162,
      "불확실성": 8163,
      "증정": 8164,
      "##RT": 8165,
      "##단장": 8166,
      "가끔": 8167,
      "국채": 8168,
      "냄새": 8169,
      "납부": 8170,
      "Th": 8171,
      "##정상회담": 8172,
      "Br": 8173,
      "법인세": 8174,
      "TF": 8175,
      "지향": 8176,
      "##SP": 8177,
      "기술력": 8178,
      "##☞": 8179,
      "생중계": 8180,
      "금호": 8181,
      "힐링": 8182,
      "채권단": 8183,
      "회전": 8184,
      "산업은행": 8185,
      "##됩니다": 8186,
      "그걸": 8187,
      "섹시": 8188,
      "뽐내": 8189,
      "자매": 8190,
      "겨우": 8191,
      "##Δ": 8192,
      "마이너스": 8193,
      "임무를": 8194,
      "스코어": 8195,
      "선보이며": 8196,
      "나눴다": 8197,
      "김태균": 8198,
      "막아내": 8199,
      "수익성": 8200,
      "커졌다": 8201,
      "##삼성": 8202,
      "1920": 8203,
      "##컴퍼니": 8204,
      "##뱅": 8205,
      "첫째": 8206,
      "##면세점": 8207,
      "참사": 8208,
      "건축물": 8209,
      "절감": 8210,
      "차지하고": 8211,
      "산맥": 8212,
      "##mo": 8213,
      "비슷하": 8214,
      "핸드": 8215,
      "블룸버그": 8216,
      "놓여": 8217,
      "증세": 8218,
      "교토": 8219,
      "1940": 8220,
      "1965": 8221,
      "통하여": 8222,
      "오염": 8223,
      "위탁": 8224,
      "개최한다": 8225,
      "그렇다면": 8226,
      "헌재": 8227,
      "담보": 8228,
      "포함되어": 8229,
      "기자들": 8230,
      "청산": 8231,
      "꽤": 8232,
      "애플리케이션": 8233,
      "웹툰": 8234,
      "가리키는": 8235,
      "로이터": 8236,
      "양쪽": 8237,
      "##놓았다": 8238,
      "부위": 8239,
      "왜곡": 8240,
      "솔로포": 8241,
      "조지아": 8242,
      "##플랜": 8243,
      "농민": 8244,
      "조선일보": 8245,
      "잊지": 8246,
      "##평론가": 8247,
      "##아파트": 8248,
      "만찬": 8249,
      "느꼈다": 8250,
      "기습": 8251,
      "색상": 8252,
      "부작용": 8253,
      "대상자": 8254,
      "민생": 8255,
      "쉬운": 8256,
      "##쥬": 8257,
      "구멍": 8258,
      "##산업단지": 8259,
      "본관은": 8260,
      "면역": 8261,
      "브래": 8262,
      "목동": 8263,
      "완승": 8264,
      "치매": 8265,
      "##보살": 8266,
      "항구": 8267,
      "즐거운": 8268,
      "발견된다": 8269,
      "##ass": 8270,
      "각본": 8271,
      "선거구": 8272,
      "보조금": 8273,
      "제기되": 8274,
      "##공신": 8275,
      "레이스": 8276,
      "과감하": 8277,
      "어쩔": 8278,
      "##닷컴": 8279,
      "바르셀로나": 8280,
      "##政": 8281,
      "##껴": 8282,
      "고구려": 8283,
      "소녀시대": 8284,
      "이승만": 8285,
      "웨스트": 8286,
      "탄탄하": 8287,
      "걸었다": 8288,
      "분들": 8289,
      "승률": 8290,
      "홍준표": 8291,
      "그만두": 8292,
      "그래픽": 8293,
      "않으며": 8294,
      "음력": 8295,
      "##iz": 8296,
      "막내": 8297,
      "##지방경찰청": 8298,
      "전망치": 8299,
      "특별히": 8300,
      "집값": 8301,
      "교과서": 8302,
      "##마루": 8303,
      "##no": 8304,
      "만들어졌다": 8305,
      "가볍게": 8306,
      "뒷받침": 8307,
      "##宗": 8308,
      "최하위": 8309,
      "강정호": 8310,
      "데리고": 8311,
      "##됐는데": 8312,
      "##our": 8313,
      "감축": 8314,
      "농촌": 8315,
      "과도한": 8316,
      "진행되고": 8317,
      "달아나": 8318,
      "합계": 8319,
      "빚어": 8320,
      "로스앤젤레스": 8321,
      "##파이어": 8322,
      "부위원장": 8323,
      "KDB": 8324,
      "추정되는": 8325,
      "출연한다": 8326,
      "쓰이는": 8327,
      "골목": 8328,
      "##닉스": 8329,
      "스코틀랜드": 8330,
      "득표": 8331,
      "찍었다": 8332,
      "검거": 8333,
      "배후": 8334,
      "건강보험": 8335,
      "살짝": 8336,
      "금융권": 8337,
      "예산안": 8338,
      "안보리": 8339,
      "터진": 8340,
      "빠져나가": 8341,
      "인테리어": 8342,
      "##反": 8343,
      "##無": 8344,
      "선보일": 8345,
      "루이스": 8346,
      "구성된다": 8347,
      "고객에게": 8348,
      "##CI": 8349,
      "훌륭한": 8350,
      "크지": 8351,
      "침공": 8352,
      "보여줄": 8353,
      "##光": 8354,
      "넥슨": 8355,
      "순으로": 8356,
      "치킨": 8357,
      "받았던": 8358,
      "##웨어": 8359,
      "장거리": 8360,
      "IoT": 8361,
      "시가총액": 8362,
      "플로리다": 8363,
      "UN": 8364,
      "위주로": 8365,
      "돌아서": 8366,
      "달라지": 8367,
      "##NE": 8368,
      "##하셔": 8369,
      "초래": 8370,
      "강등": 8371,
      "##착륙": 8372,
      "포함돼": 8373,
      "일환으로": 8374,
      "프리미어리그": 8375,
      "거짓": 8376,
      "달아났다": 8377,
      "중이던": 8378,
      "생산량": 8379,
      "계단": 8380,
      "헌법재판소": 8381,
      "##野": 8382,
      "You": 8383,
      "인건비": 8384,
      "눈빛": 8385,
      "검사장": 8386,
      "며칠": 8387,
      "지침": 8388,
      "##per": 8389,
      "여러가지": 8390,
      "지방선거": 8391,
      "부족하다": 8392,
      "구별": 8393,
      "공헌": 8394,
      "크리스티": 8395,
      "국회의장": 8396,
      "체코": 8397,
      "박정희": 8398,
      "지켜봐": 8399,
      "업그레이드": 8400,
      "우연히": 8401,
      "낙찰": 8402,
      "##선수권대회": 8403,
      "He": 8404,
      "##되던": 8405,
      "칠레": 8406,
      "알았다": 8407,
      "겪었다": 8408,
      "미얀마": 8409,
      "사우디아라비아": 8410,
      "##院": 8411,
      "Tr": 8412,
      "1967": 8413,
      "날렸다": 8414,
      "잡혀": 8415,
      "양의지": 8416,
      "팽팽하": 8417,
      "단편": 8418,
      "금요일": 8419,
      "쟁점": 8420,
      "연쇄": 8421,
      "올스타": 8422,
      "##ᆫ천국제공항": 8423,
      "##콰": 8424,
      "충실": 8425,
      "스님": 8426,
      "자유롭게": 8427,
      "간편": 8428,
      "처형": 8429,
      "뽑아내": 8430,
      "뽑아": 8431,
      "기본적으로": 8432,
      "주둔": 8433,
      "실시한다": 8434,
      "초등학교이다": 8435,
      "효과적": 8436,
      "없던": 8437,
      "칼리": 8438,
      "맑": 8439,
      "준결승": 8440,
      "뜬공": 8441,
      "승무원": 8442,
      "여객철도": 8443,
      "꾸준하": 8444,
      "##AL": 8445,
      "기성용": 8446,
      "##나갈": 8447,
      "비대위": 8448,
      "추첨": 8449,
      "민중": 8450,
      "벌이는": 8451,
      "좌절": 8452,
      "##샵": 8453,
      "##×": 8454,
      "하이브리드": 8455,
      "##스퀘어": 8456,
      "퇴장": 8457,
      "커브": 8458,
      "KBL": 8459,
      "##붕": 8460,
      "등장한다": 8461,
      "데뷔전": 8462,
      "불가능하다": 8463,
      "열연": 8464,
      "이정현": 8465,
      "미뤄": 8466,
      "프랜차이즈": 8467,
      "흰색": 8468,
      "바꿨다": 8469,
      "날짜": 8470,
      "국가안보": 8471,
      "쏟아지": 8472,
      "좌파": 8473,
      "대대적": 8474,
      "##西": 8475,
      "낚시": 8476,
      "동향": 8477,
      "착공": 8478,
      "갖췄다": 8479,
      "블로킹": 8480,
      "늘어났다": 8481,
      "##RA": 8482,
      "##쌍": 8483,
      "컬렉션": 8484,
      "##ᅡ": 8485,
      "옛날": 8486,
      "드레스": 8487,
      "펼쳐졌다": 8488,
      "##미사일": 8489,
      "유대인": 8490,
      "간판": 8491,
      "푸른": 8492,
      "LPGA": 8493,
      "슬라이더": 8494,
      "##京": 8495,
      "시너지": 8496,
      "쫓아": 8497,
      "면허": 8498,
      "##RE": 8499,
      "하와이": 8500,
      "##age": 8501,
      "성남시": 8502,
      "소상공인": 8503,
      "감안하면": 8504,
      "들어선": 8505,
      "막히": 8506,
      "피칭": 8507,
      "결승골": 8508,
      "김영철": 8509,
      "기름": 8510,
      "한동안": 8511,
      "정상회의": 8512,
      "오프라인": 8513,
      "반박했다": 8514,
      "인쇄": 8515,
      "소셜": 8516,
      "제기됐다": 8517,
      "심각하": 8518,
      "동결": 8519,
      "Con": 8520,
      "순조": 8521,
      "계절": 8522,
      "은메달": 8523,
      "블로그": 8524,
      "##뼈": 8525,
      "팔리": 8526,
      "1949": 8527,
      "새끼": 8528,
      "한국영화": 8529,
      "망명": 8530,
      "리듬": 8531,
      "위력": 8532,
      "베네수엘라": 8533,
      "주한미군": 8534,
      "세계대전": 8535,
      "취향": 8536,
      "경영권": 8537,
      "김재환": 8538,
      "1966": 8539,
      "멋": 8540,
      "자아내": 8541,
      "##成": 8542,
      "상암동": 8543,
      "##자산운용": 8544,
      "정준영": 8545,
      "기재부": 8546,
      "죽었다": 8547,
      "촉구했다": 8548,
      "랜": 8549,
      "걸친": 8550,
      "##ace": 8551,
      "KLPGA": 8552,
      "샌프란시스코": 8553,
      "전라북도": 8554,
      "한진해운": 8555,
      "##石": 8556,
      "미치지": 8557,
      "물품": 8558,
      "중앙은행": 8559,
      "##끝": 8560,
      "이르러": 8561,
      "식량": 8562,
      "##하냐": 8563,
      "진압": 8564,
      "게이트": 8565,
      "순매수": 8566,
      "드디어": 8567,
      "스프링캠프": 8568,
      "주고받": 8569,
      "ICT": 8570,
      "슈퍼맨": 8571,
      "부정적": 8572,
      "상태였다": 8573,
      "턱": 8574,
      "내놨다": 8575,
      "라이벌": 8576,
      "##통합": 8577,
      "월급": 8578,
      "##MD": 8579,
      "잇달아": 8580,
      "맞붙": 8581,
      "세미나": 8582,
      "임명되었다": 8583,
      "금융위원회": 8584,
      "이룬": 8585,
      "이재용": 8586,
      "챙겼다": 8587,
      "##end": 8588,
      "##행복드림구장": 8589,
      "내셔널": 8590,
      "##男": 8591,
      "IBK": 8592,
      "정확하게": 8593,
      "공동체": 8594,
      "계층": 8595,
      "이루는": 8596,
      "순천": 8597,
      "머물렀다": 8598,
      "찰스": 8599,
      "##샘": 8600,
      "가깝다": 8601,
      "확립": 8602,
      "맡겨": 8603,
      "2022": 8604,
      "##ome": 8605,
      "내줬다": 8606,
      "기쁘다": 8607,
      "드래프트": 8608,
      "##太": 8609,
      "##水": 8610,
      "뉴욕타임스": 8611,
      "소규모": 8612,
      "전당대회": 8613,
      "저지른": 8614,
      "##금융지주": 8615,
      "평가받": 8616,
      "##앱": 8617,
      "##됨에": 8618,
      "싸워": 8619,
      "소폭": 8620,
      "고척스카이돔": 8621,
      "셋째": 8622,
      "신태용": 8623,
      "두려워": 8624,
      "##등록": 8625,
      "창업자": 8626,
      "병행": 8627,
      "##태평양": 8628,
      "리틀": 8629,
      "확실하": 8630,
      "##EL": 8631,
      "표결": 8632,
      "낮춰": 8633,
      "워너원": 8634,
      "윈도우": 8635,
      "마이크로소프트": 8636,
      "적었다": 8637,
      "크게보기": 8638,
      "들어간다": 8639,
      "한화생명": 8640,
      "행운": 8641,
      "금융회사": 8642,
      "거두며": 8643,
      "들어왔다": 8644,
      "급격ᄒ": 8645,
      "올라섰다": 8646,
      "얼음": 8647,
      "혈액": 8648,
      "1941": 8649,
      "있음": 8650,
      "놀라게": 8651,
      "##ug": 8652,
      "유권자": 8653,
      "감옥": 8654,
      "항복": 8655,
      "비주얼": 8656,
      "다행히": 8657,
      "젖": 8658,
      "바뀌어": 8659,
      "1946": 8660,
      "##소프트": 8661,
      "##블러": 8662,
      "극찬": 8663,
      "하향": 8664,
      "티저": 8665,
      "일찌감치": 8666,
      "##陽": 8667,
      "첼시": 8668,
      "토론회": 8669,
      "이룬다": 8670,
      "##레이터": 8671,
      "아우디": 8672,
      "염두": 8673,
      "##EX": 8674,
      "우즈베키스탄": 8675,
      "오프닝": 8676,
      "흙": 8677,
      "문제점": 8678,
      "확충": 8679,
      "아픔": 8680,
      "라이언": 8681,
      "영등포구": 8682,
      "넘어섰다": 8683,
      "혼합": 8684,
      "검출": 8685,
      "자발적": 8686,
      "##NC": 8687,
      "비슷하다": 8688,
      "알리바바": 8689,
      "스윙": 8690,
      "##스트리트": 8691,
      "레알": 8692,
      "언제나": 8693,
      "##ib": 8694,
      "##SE": 8695,
      "비교하면": 8696,
      "부친": 8697,
      "##é": 8698,
      "스케줄": 8699,
      "##인삼공사": 8700,
      "##ens": 8701,
      "나뉘어": 8702,
      "퀸": 8703,
      "놀라운": 8704,
      "상승률": 8705,
      "##신탁": 8706,
      "동남아": 8707,
      "OECD": 8708,
      "##生": 8709,
      "개성공단": 8710,
      "보도자료": 8711,
      "존슨": 8712,
      "기쁘": 8713,
      "법학": 8714,
      "##田": 8715,
      "이루고": 8716,
      "1961": 8717,
      "요새": 8718,
      "체류": 8719,
      "##시키며": 8720,
      "지상역": 8721,
      "##주머니": 8722,
      "주도권": 8723,
      "고고도": 8724,
      "동메달": 8725,
      "##性": 8726,
      "탄도미사일": 8727,
      "##ᆻ듯": 8728,
      "간접": 8729,
      "계급": 8730,
      "##PP": 8731,
      "복지부": 8732,
      "부통령": 8733,
      "쌍둥이": 8734,
      "확진": 8735,
      "경쟁률": 8736,
      "다가가": 8737,
      "거듭나": 8738,
      "재계약": 8739,
      "신앙": 8740,
      "새정치연합": 8741,
      "아쉬운": 8742,
      "##德": 8743,
      "힐러리": 8744,
      "객관적": 8745,
      "청나라": 8746,
      "섬유": 8747,
      "##OT": 8748,
      "탄력": 8749,
      "NYT": 8750,
      "미래에셋": 8751,
      "한마디": 8752,
      "흡연": 8753,
      "멍": 8754,
      "네티즌": 8755,
      "빨라": 8756,
      "##캠": 8757,
      "뽐냈다": 8758,
      "go": 8759,
      "ICBM": 8760,
      "쇼케이스": 8761,
      "니퍼트": 8762,
      "야간": 8763,
      "무효": 8764,
      "상위권": 8765,
      "연이어": 8766,
      "보여줘": 8767,
      "콜롬비아": 8768,
      "##어지면서": 8769,
      "신용카드": 8770,
      "초반부터": 8771,
      "##쩍": 8772,
      "##업통상자원부": 8773,
      "카리스마": 8774,
      "프로모션": 8775,
      "얻기": 8776,
      "버튼": 8777,
      "##역학": 8778,
      "특급": 8779,
      "##SK": 8780,
      "옳": 8781,
      "거머쥐": 8782,
      "횟수": 8783,
      "관람객": 8784,
      "##PM": 8785,
      "일으켰다": 8786,
      "##사업부": 8787,
      "즐겁": 8788,
      "##小": 8789,
      "때려내": 8790,
      "점심": 8791,
      "통계청": 8792,
      "펜스": 8793,
      "##門": 8794,
      "사로잡았다": 8795,
      "##토록": 8796,
      "연합군": 8797,
      "출력": 8798,
      "워터": 8799,
      "for": 8800,
      "##主": 8801,
      "사회공헌": 8802,
      "외야수": 8803,
      "근로시간": 8804,
      "욕설": 8805,
      "코스피": 8806,
      "급격하": 8807,
      "맨체스터": 8808,
      "월화드라마": 8809,
      "디즈니": 8810,
      "끓": 8811,
      "##종합운동장": 8812,
      "불륜": 8813,
      "제조업체": 8814,
      "네티즌들": 8815,
      "##변호사": 8816,
      "아랍에미리트": 8817,
      "챔피언결정": 8818,
      "##地": 8819,
      "##親": 8820,
      "세르비아": 8821,
      "나성범": 8822,
      "내놓았다": 8823,
      "##FA": 8824,
      "##IV": 8825,
      "지방자치단체": 8826,
      "##자책점": 8827,
      "닮아": 8828,
      "LED": 8829,
      "몰입": 8830,
      "##ord": 8831,
      "놀랐다": 8832,
      "다큐멘터리": 8833,
      "다툼": 8834,
      "래퍼": 8835,
      "금융시장": 8836,
      "##bo": 8837,
      "집필": 8838,
      "1954": 8839,
      "대략": 8840,
      "민주화": 8841,
      "내려오": 8842,
      "드루킹": 8843,
      "##本": 8844,
      "남자친구": 8845,
      "부적절": 8846,
      "토마스": 8847,
      "주먹": 8848,
      "##아일랜드": 8849,
      "기자간담회": 8850,
      "##디자인": 8851,
      "이르렀다": 8852,
      "열풍": 8853,
      "이뤘다": 8854,
      "스캔들": 8855,
      "국정감사": 8856,
      "스릴러": 8857,
      "겹치": 8858,
      "월세": 8859,
      "보스턴": 8860,
      "거둬": 8861,
      "http": 8862,
      "비례대표": 8863,
      "트위": 8864,
      "개인정보": 8865,
      "영혼": 8866,
      "화폐": 8867,
      "##CS": 8868,
      "레코드": 8869,
      "1958": 8870,
      "치렀다": 8871,
      "##府": 8872,
      "KTX": 8873,
      "고위급": 8874,
      "##이에요": 8875,
      "##ᅰ": 8876,
      "민주노총": 8877,
      "##・": 8878,
      "##行": 8879,
      "대북제재": 8880,
      "흘렸다": 8881,
      "##바닥": 8882,
      "경제부총리": 8883,
      "블록체인": 8884,
      "##武": 8885,
      "최형우": 8886,
      "폭풍": 8887,
      "김광현": 8888,
      "불안감": 8889,
      "잃었다": 8890,
      "접목": 8891,
      "뮌헨": 8892,
      "멸망": 8893,
      "##떼": 8894,
      "플로": 8895,
      "##ark": 8896,
      "르노삼성": 8897,
      "아르바이트": 8898,
      "황교안": 8899,
      "선고받았다": 8900,
      "피해자들": 8901,
      "##앵": 8902,
      "벤투": 8903,
      "FT": 8904,
      "##ear": 8905,
      "##神": 8906,
      "신동빈": 8907,
      "##모터쇼": 8908,
      "##레이드": 8909,
      "책임감": 8910,
      "1956": 8911,
      "많으": 8912,
      "##스페이스": 8913,
      "##RI": 8914,
      "논평": 8915,
      "결함": 8916,
      "줄이는": 8917,
      "소속팀": 8918,
      "광저우": 8919,
      "라디오스타": 8920,
      "폭염": 8921,
      "엿보": 8922,
      "##ᆸ니까": 8923,
      "구체적": 8924,
      "##CL": 8925,
      "##ᄀ": 8926,
      "히어로": 8927,
      "##여자프로골프": 8928,
      "아테네": 8929,
      "명목으로": 8930,
      "강동원": 8931,
      "##공무원": 8932,
      "##仁": 8933,
      "##原": 8934,
      "플라스틱": 8935,
      "##ED": 8936,
      "담아내": 8937,
      "사라졌다": 8938,
      "1947": 8939,
      "Un": 8940,
      "끌어내": 8941,
      "##μ": 8942,
      "끌려가": 8943,
      "##국민은행": 8944,
      "센서": 8945,
      "훔치": 8946,
      "기소됐다": 8947,
      "##使": 8948,
      "엇갈리": 8949,
      "가르쳐": 8950,
      "월간": 8951,
      "##ᅪ": 8952,
      "정규시즌": 8953,
      "객실": 8954,
      "김구라": 8955,
      "##DD": 8956,
      "1944": 8957,
      "학살": 8958,
      "참가자들": 8959,
      "헌신": 8960,
      "##都": 8961,
      "막대한": 8962,
      "##원숭이": 8963,
      "찾아온": 8964,
      "시민단체": 8965,
      "##OR": 8966,
      "용산구": 8967,
      "관할한다": 8968,
      "##하므로": 8969,
      "다뤄": 8970,
      "##會": 8971,
      "국세청": 8972,
      "젊": 8973,
      "##롯데": 8974,
      "##커뮤니케이션": 8975,
      "순식간에": 8976,
      "여자프로농구": 8977,
      "웹사이트": 8978,
      "선취점": 8979,
      "소멸": 8980,
      "치러진": 8981,
      "좌측": 8982,
      "느리": 8983,
      "##월스트리트저널": 8984,
      "부산광역시": 8985,
      "알고리즘": 8986,
      "한국시각": 8987,
      "##슈타인": 8988,
      "없도록": 8989,
      "나뉜다": 8990,
      "국제공항": 8991,
      "가해자": 8992,
      "만들겠다": 8993,
      "아무것도": 8994,
      "홋카이도": 8995,
      "자존심": 8996,
      "무소속": 8997,
      "##번타자": 8998,
      "##ide": 8999,
      "##롯데월드": 9000,
      "적힌": 9001,
      "##촬영": 9002,
      "##ind": 9003,
      "제기된": 9004,
      "##ᅲ": 9005,
      "##∙": 9006,
      "사법연수원": 9007,
      "하버드": 9008,
      "아사히": 9009,
      "선배님": 9010,
      "행렬": 9011,
      "##ᆼ턴": 9012,
      "제치": 9013,
      "##等": 9014,
      "이르기까지": 9015,
      "가벼운": 9016,
      "공산주의": 9017,
      "##플렉스": 9018,
      "후배들": 9019,
      "절친": 9020,
      "##시키려": 9021,
      "수목드라마": 9022,
      "히로시마": 9023,
      "바둑": 9024,
      "연예계": 9025,
      "없음": 9026,
      "프리미어": 9027,
      "1959": 9028,
      "커버": 9029,
      "MOU": 9030,
      "하셨습니다": 9031,
      "되겠다": 9032,
      "러닝": 9033,
      "어쩌": 9034,
      "통화정책": 9035,
      "##그램": 9036,
      "감찰": 9037,
      "##ᄉ": 9038,
      "##ᅧ": 9039,
      "##인터내셔널": 9040,
      "총괄회장": 9041,
      "꾸려": 9042,
      "출처": 9043,
      "금융기관": 9044,
      "##ence": 9045,
      "퇴근": 9046,
      "뽑았다": 9047,
      "시행령": 9048,
      "커다라": 9049,
      "깊어": 9050,
      "##디스플레이": 9051,
      "##PI": 9052,
      "OSEN": 9053,
      "##君": 9054,
      "광범위하": 9055,
      "치솟": 9056,
      "꾸미": 9057,
      "동북아": 9058,
      "투런": 9059,
      "##앨범": 9060,
      "퇴임": 9061,
      "꾀": 9062,
      "##郡": 9063,
      "아쉽게": 9064,
      "여동생": 9065,
      "쓰러져": 9066,
      "이겨내": 9067,
      "올시즌": 9068,
      "불공정": 9069,
      "포털": 9070,
      "##ᆻ는가": 9071,
      "적혀": 9072,
      "##民": 9073,
      "멈춰": 9074,
      "또다른": 9075,
      "##헬스케어": 9076,
      "##ᅢ": 9077,
      "##SR": 9078,
      "##NS": 9079,
      "견디": 9080,
      "넷플릭스": 9081,
      "런닝맨": 9082,
      "##部": 9083,
      "##칼텍스": 9084,
      "안타깝": 9085,
      "화려하": 9086,
      "감싸": 9087,
      "섬세하": 9088,
      "프레임": 9089,
      "가계부채": 9090,
      "##컨벤션": 9091,
      "바이에른": 9092,
      "테슬라": 9093,
      "거론되": 9094,
      "##팬들": 9095,
      "안드레": 9096,
      "규명": 9097,
      "오리지널": 9098,
      "내륙": 9099,
      "침략": 9100,
      "##이었기": 9101,
      "얇": 9102,
      "##규칙": 9103,
      "숨졌다": 9104,
      "오승환": 9105,
      "##닫기ᄀ": 9106,
      "##MP": 9107,
      "덧붙여": 9108,
      "##ᄇ": 9109,
      "중화민국": 9110,
      "미스터리": 9111,
      "롯데시네마": 9112,
      "후계자": 9113,
      "어워드": 9114,
      "습관": 9115,
      "농담": 9116,
      "훗날": 9117,
      "유희관": 9118,
      "모듈": 9119,
      "간호사": 9120,
      "타이밍": 9121,
      "잇따르": 9122,
      "모양새": 9123,
      "죄송": 9124,
      "권한대행": 9125,
      "그나마": 9126,
      "상용화": 9127,
      "멜로디": 9128,
      "셀트리온": 9129,
      "체인지업": 9130,
      "고용노동부": 9131,
      "소프트뱅크": 9132,
      "충청북도": 9133,
      "ACL": 9134,
[...]
